<pad>	0
<s>	0
</s>	0
<unk>	0
.	-2.43383
s	-3.50855
▁a	-3.94789
'	-4.20786
▁I	-4.214
▁de	-4.36374
▁the	-4.3999
?	-4.40063
,	-4.41459
▁to	-4.44473
▁Tom	-4.44944
t	-4.52488
▁que	-4.63716
▁la	-4.77689
▁you	-4.92478
▁is	-4.93379
▁en	-5.02
▁el	-5.08316
▁¿	-5.09482
▁no	-5.10127
▁es	-5.11862
▁in	-5.23497
▁me	-5.2536
▁un	-5.25555
▁of	-5.32681
n	-5.38877
o	-5.41753
▁No	-5.50794
▁se	-5.6298
▁The	-5.63155
▁that	-5.68465
▁una	-5.73324
▁He	-5.73857
m	-5.75838
▁was	-5.80004
r	-5.82056
▁it	-5.85626
▁Mary	-5.86029
▁and	-5.87823
▁y	-5.88226
d	-5.91858
▁lo	-5.92291
▁El	-5.9285
▁for	-5.94176
▁con	-5.94276
a	-5.94519
▁	-5.95594
▁have	-5.97044
▁su	-6.02102
re	-6.02998
ed	-6.051
▁los	-6.06972
!	-6.06974
▁por	-6.07062
▁he	-6.07482
e	-6.09086
y	-6.11962
▁are	-6.14172
▁my	-6.15269
▁be	-6.16176
▁está	-6.18779
ing	-6.20334
▁para	-6.20996
▁La	-6.24192
▁on	-6.24733
▁do	-6.25376
▁You	-6.25848
▁with	-6.25985
▁not	-6.27923
▁mi	-6.3055
▁A	-6.30995
es	-6.31051
▁We	-6.34342
▁can	-6.34739
▁más	-6.36007
▁She	-6.36009
▁this	-6.37423
▁al	-6.37884
▁Él	-6.38069
▁le	-6.38592
▁his	-6.38634
▁has	-6.3999
▁like	-6.40924
▁your	-6.41894
ll	-6.4208
▁don	-6.42358
te	-6.42428
▁It	-6.42649
▁las	-6.47744
ó	-6.48517
▁want	-6.54177
▁Me	-6.54181
c	-6.55784
▁del	-6.56663
▁know	-6.57196
▁te	-6.57317
▁at	-6.59295
ve	-6.61758
▁Ella	-6.63353
▁her	-6.64671
é	-6.71813
▁him	-6.7361
▁"	-6.73621
do	-6.74868
▁¡	-6.75483
mos	-6.7804
ar	-6.78726
▁go	-6.81291
p	-6.82569
▁will	-6.82761
ta	-6.8334
▁What	-6.83508
▁an	-6.84503
▁qué	-6.84548
▁tu	-6.85286
▁tiene	-6.87269
er	-6.87398
▁what	-6.87564
▁This	-6.8829
▁Es	-6.90648
▁son	-6.90977
▁muy	-6.91718
ly	-6.93179
▁ha	-6.94477
▁so	-6.95482
▁time	-6.95653
se	-6.96189
▁from	-6.96223
▁we	-6.97265
▁had	-6.98721
▁como	-6.98934
▁all	-6.99237
▁very	-6.99395
le	-7.01258
▁They	-7.01944
lo	-7.02576
▁about	-7.02818
▁up	-7.03646
▁My	-7.0603
ra	-7.06284
▁Do	-7.06531
▁casa	-7.06954
▁think	-7.07702
▁one	-7.07767
l	-7.0847
▁o	-7.08891
▁but	-7.09061
▁él	-7.10135
▁Mi	-7.10558
▁hacer	-7.12088
▁out	-7.12298
▁by	-7.13496
Qué	-7.13794
g	-7.13923
la	-7.14114
▁Los	-7.15223
▁fue	-7.1571
▁Esto	-7.17321
▁esta	-7.18122
▁didn	-7.18527
da	-7.18823
en	-7.18955
me	-7.19141
▁estaba	-7.19284
▁get	-7.21101
▁she	-7.21524
▁as	-7.2333
ro	-7.23797
▁here	-7.24765
▁were	-7.25028
▁There	-7.25514
u	-7.2611
▁going	-7.26373
▁si	-7.26793
as	-7.28974
ado	-7.29159
▁would	-7.29359
▁gusta	-7.294
▁pero	-7.30138
▁there	-7.30822
▁than	-7.31948
ri	-7.32108
▁tiempo	-7.32902
▁more	-7.32966
▁ser	-7.33428
▁eso	-7.33568
▁did	-7.33743
▁good	-7.33744
▁todo	-7.3671
▁That	-7.3735
▁re	-7.37827
-	-7.37895
▁Yo	-7.39307
▁doesn	-7.39324
i	-7.3941
▁aquí	-7.39696
▁come	-7.3985
▁mucho	-7.40079
▁este	-7.40282
▁Se	-7.40976
▁nada	-7.41509
al	-7.42459
▁vez	-7.42641
▁see	-7.42887
▁tan	-7.4309
▁need	-7.43584
í	-7.44434
▁How	-7.44465
▁bien	-7.45599
▁should	-7.45734
▁us	-7.46105
▁been	-7.46523
▁era	-7.46723
▁Don	-7.47872
▁ir	-7.48289
▁when	-7.48407
to	-7.49364
▁am	-7.49505
▁who	-7.49667
b	-7.50043
▁puede	-7.50892
▁just	-7.5092
▁algo	-7.51823
ce	-7.52612
▁ella	-7.52827
▁En	-7.53302
▁Si	-7.53967
▁man	-7.53987
ba	-7.54229
▁car	-7.54554
▁much	-7.54976
▁people	-7.55736
▁never	-7.56511
co	-7.57075
▁cuando	-7.5709
▁sus	-7.58412
▁puedo	-7.59488
▁if	-7.60433
▁favor	-7.6065
▁they	-7.60659
▁or	-7.60934
▁day	-7.62585
de	-7.62838
Por	-7.63655
ndo	-7.63775
▁yo	-7.63823
▁va	-7.63959
▁Su	-7.64543
▁T	-7.64936
▁work	-7.65995
in	-7.66392
▁help	-7.67618
▁ver	-7.67797
▁Lo	-7.6785
▁Le	-7.68339
▁now	-7.68456
▁got	-7.696
▁love	-7.69907
▁hay	-7.70015
á	-7.70377
▁Esta	-7.7096
▁too	-7.71106
▁how	-7.71109
▁said	-7.71958
▁ti	-7.72001
▁If	-7.72402
na	-7.72672
▁mejor	-7.73498
▁día	-7.73626
▁Why	-7.73883
li	-7.74062
▁Teng	-7.74179
▁hace	-7.74405
mente	-7.74631
▁dos	-7.74829
▁tell	-7.74941
▁sin	-7.75783
."	-7.76094
an	-7.76121
▁todos	-7.764
ía	-7.77082
▁always	-7.7723
▁only	-7.7738
▁trabajo	-7.77642
▁some	-7.77911
▁our	-7.78088
los	-7.78143
▁vida	-7.78492
▁hablar	-7.78652
ca	-7.78679
no	-7.78936
on	-7.79125
▁last	-7.79346
▁house	-7.79366
▁take	-7.79551
▁tengo	-7.79783
▁dijo	-7.79937
▁Te	-7.80875
▁mañana	-7.81326
ada	-7.81681
▁Quier	-7.81965
▁dinero	-7.82007
▁Este	-7.82448
▁c	-7.82698
A	-7.8344
▁money	-7.83598
▁make	-7.84236
▁back	-7.84253
▁Boston	-7.84565
ga	-7.84601
▁say	-7.84698
▁esto	-7.84822
▁many	-7.84864
▁home	-7.8545
▁two	-7.85596
▁book	-7.86001
▁años	-7.86206
▁lot	-7.86455
▁eat	-7.87084
f	-7.87552
▁s	-7.87669
▁really	-7.87734
▁libro	-7.87842
▁something	-7.8797
▁any	-7.88185
▁sobre	-7.88208
ir	-7.89775
▁could	-7.89776
▁están	-7.90145
▁solo	-7.90151
▁estoy	-7.90349
No	-7.90442
▁them	-7.91035
▁quiero	-7.91091
▁right	-7.91266
▁When	-7.91551
▁había	-7.9161
w	-7.92637
ci	-7.92927
▁Las	-7.93687
▁poco	-7.94097
▁isn	-7.94324
▁new	-7.94391
vi	-7.94827
▁must	-7.95424
▁went	-7.95701
▁speak	-7.95923
▁made	-7.96447
ne	-7.96751
pe	-7.97183
os	-7.9736
ma	-7.9749
▁hombre	-7.97875
▁Por	-7.98043
▁siempre	-7.98069
▁told	-7.98325
▁anything	-7.98379
▁e	-7.99352
▁life	-7.99629
▁C	-8.00359
▁long	-8.0054
ion	-8.00748
▁into	-8.01169
is	-8.01385
▁well	-8.01414
th	-8.01415
▁Can	-8.01469
▁E	-8.01535
▁their	-8.017
?"	-8.02347
▁Who	-8.02375
▁over	-8.02562
▁Are	-8.03032
▁French	-8.03138
▁mundo	-8.03486
▁still	-8.04315
mo	-8.04652
ción	-8.04839
▁Let	-8.04983
▁quiere	-8.04995
▁John	-8.05107
▁off	-8.0543
▁room	-8.05653
ando	-8.07135
▁haber	-8.07153
▁tenía	-8.07456
▁Hay	-8.07471
▁Un	-8.07584
ré	-8.07634
▁live	-8.07743
▁school	-8.07999
▁old	-8.08195
▁Where	-8.08489
z	-8.08812
▁tres	-8.08851
▁ahora	-8.09236
▁antes	-8.09293
▁way	-8.0938
▁ya	-8.09432
▁thought	-8.09474
▁padre	-8.09517
▁nunca	-8.09581
▁noche	-8.09664
▁three	-8.0979
▁today	-8.099
▁better	-8.10279
▁other	-8.10292
▁estar	-8.10317
▁di	-8.10449
▁plan	-8.10615
▁sé	-8.10734
▁gente	-8.11481
▁María	-8.12204
▁demasiado	-8.12251
k	-8.12343
▁francés	-8.12465
▁sabe	-8.12504
pa	-8.12722
▁before	-8.12894
▁won	-8.13095
▁mis	-8.13274
▁idea	-8.13475
▁first	-8.14047
▁years	-8.142
▁talk	-8.14205
▁father	-8.14342
ido	-8.14475
"	-8.14496
▁left	-8.14558
▁English	-8.14701
ck	-8.14795
ron	-8.15224
;	-8.15507
▁co	-8.15773
▁night	-8.16024
go	-8.16047
▁Creo	-8.16173
▁nuevo	-8.16246
▁does	-8.16305
:	-8.16915
▁little	-8.1699
▁De	-8.17079
or	-8.17131
▁mí	-8.1751
▁tarde	-8.17513
tion	-8.17757
▁mismo	-8.17778
▁ca	-8.17824
Cómo	-8.18191
▁In	-8.1822
ic	-8.18439
▁Please	-8.18494
▁verdad	-8.19175
ja	-8.19431
▁every	-8.19733
el	-8.2029
ch	-8.20485
▁hizo	-8.21265
us	-8.21436
▁because	-8.21964
▁inglés	-8.22278
di	-8.22287
▁give	-8.22952
▁dog	-8.22955
ter	-8.23611
▁where	-8.23695
▁ese	-8.23818
▁hecho	-8.24353
▁world	-8.24829
▁ni	-8.24948
▁mal	-8.25088
▁decir	-8.25531
▁came	-8.25537
▁understand	-8.25803
▁read	-8.25828
▁perro	-8.26329
▁down	-8.26505
▁ex	-8.2667
▁find	-8.26701
▁Did	-8.26779
▁pro	-8.26908
nd	-8.27364
▁tomorrow	-8.27613
Dónde	-8.27696
ru	-8.27797
able	-8.28217
▁coche	-8.28375
ur	-8.28491
▁así	-8.28498
ste	-8.29235
je	-8.29537
▁Está	-8.29659
▁Eso	-8.30247
▁Soy	-8.30298
▁quería	-8.30561
▁His	-8.31145
Quién	-8.31248
▁comer	-8.3136
▁saw	-8.31523
▁put	-8.31549
▁hora	-8.31956
▁nothing	-8.32115
▁Ya	-8.32882
▁hoy	-8.32897
▁esa	-8.32924
▁buy	-8.32963
▁play	-8.33036
▁again	-8.33041
que	-8.33128
▁mother	-8.33257
mi	-8.33349
▁agua	-8.33441
▁soy	-8.33443
▁feel	-8.33496
pi	-8.33505
▁porque	-8.33568
va	-8.33684
▁asked	-8.33782
▁wanted	-8.34571
▁without	-8.35154
▁name	-8.35687
▁madre	-8.35806
cia	-8.3606
▁after	-8.361
▁tú	-8.36225
▁gran	-8.36256
▁sea	-8.36272
▁everything	-8.3628
▁believe	-8.36372
▁cosas	-8.36385
▁look	-8.37067
▁water	-8.37196
tra	-8.37317
▁p	-8.37788
▁vi	-8.38222
bo	-8.38302
▁call	-8.38379
▁días	-8.38432
po	-8.38608
Te	-8.38762
▁friend	-8.38849
▁ever	-8.39301
▁semana	-8.39409
▁cómo	-8.39514
▁children	-8.39692
▁job	-8.39975
ver	-8.40005
rá	-8.40019
▁entre	-8.40025
▁Yanni	-8.40063
amos	-8.40405
▁parece	-8.40462
▁pre	-8.40524
▁hard	-8.40587
ría	-8.4062
▁Have	-8.41147
▁menos	-8.4117
▁Al	-8.41562
tu	-8.41727
x	-8.42003
▁S	-8.42218
▁already	-8.42634
ted	-8.4304
▁took	-8.43186
▁used	-8.4322
▁Todos	-8.43261
▁doctor	-8.43506
▁nadie	-8.43799
▁friends	-8.43804
▁Tiene	-8.44184
▁yesterday	-8.44288
▁nos	-8.44477
▁problema	-8.44591
ment	-8.44746
▁da	-8.45565
▁otra	-8.45574
▁uno	-8.45864
▁estado	-8.46052
▁leave	-8.46102
I	-8.46207
▁brother	-8.46272
▁niños	-8.46779
▁language	-8.4723
▁happy	-8.47376
▁most	-8.47435
▁veces	-8.4769
▁voy	-8.47985
▁ciudad	-8.47999
▁use	-8.48275
▁dice	-8.48442
▁things	-8.48486
▁bad	-8.48654
▁gustaría	-8.48978
▁F	-8.48992
▁habla	-8.49016
tic	-8.49036
▁Tomás	-8.4938
▁comprar	-8.49987
Es	-8.49998
▁difícil	-8.50041
▁next	-8.50041
▁Cuando	-8.5005
▁Ha	-8.50095
nos	-8.50231
mp	-8.50243
▁escuela	-8.50353
▁amigo	-8.50519
▁personas	-8.50791
▁amigos	-8.50826
▁found	-8.51194
▁Nunca	-8.51202
▁please	-8.51401
▁doing	-8.5143
▁año	-8.51942
▁year	-8.52084
▁per	-8.52363
bi	-8.52629
▁away	-8.52636
▁best	-8.52725
be	-8.53005
▁fuera	-8.53198
▁problem	-8.53568
▁door	-8.53725
▁otro	-8.53794
▁buen	-8.54169
▁even	-8.54193
un	-8.54236
nte	-8.54438
▁ayuda	-8.54559
▁morning	-8.54612
▁pasado	-8.54804
▁being	-8.55051
Cuál	-8.55079
▁tanto	-8.55178
▁same	-8.55217
est	-8.55233
ting	-8.55308
▁quién	-8.55595
▁niño	-8.55695
▁gave	-8.55883
▁puerta	-8.56146
▁learn	-8.56267
vo	-8.56321
▁también	-8.56367
▁thing	-8.56439
ió	-8.57022
▁debería	-8.57197
▁why	-8.57256
ity	-8.57273
▁cat	-8.57348
▁beautiful	-8.5748
▁bought	-8.57483
ble	-8.57559
▁mar	-8.57715
▁persona	-8.5775
▁teacher	-8.57851
h	-8.57951
▁week	-8.58032
▁estás	-8.585
▁hope	-8.59014
▁buena	-8.59555
▁pe	-8.59674
▁desde	-8.59854
ul	-8.60302
ón	-8.60468
▁dio	-8.60607
▁drink	-8.60693
ia	-8.60817
▁nombre	-8.61109
▁tener	-8.61235
▁Sé	-8.61509
▁girl	-8.61533
▁lugar	-8.61598
idad	-8.61666
ni	-8.61909
▁sure	-8.62263
▁All	-8.62314
▁may	-8.62863
▁stay	-8.63039
▁ten	-8.63237
rse	-8.6325
▁country	-8.63362
▁po	-8.63412
v	-8.63537
▁couldn	-8.63707
▁tienen	-8.6384
▁hermano	-8.63845
▁place	-8.6412
▁late	-8.64281
il	-8.64338
▁person	-8.64419
▁wants	-8.64483
▁después	-8.64671
▁lost	-8.64716
▁let	-8.64719
▁bus	-8.64914
▁rain	-8.65074
▁alguien	-8.65116
▁hacerlo	-8.6523
▁cuenta	-8.65275
aron	-8.6533
▁Tu	-8.65476
▁llama	-8.65691
it	-8.6577
▁Be	-8.6581
▁mujer	-8.65816
▁usted	-8.65899
▁quieres	-8.65991
emos	-8.66007
▁sister	-8.6616
▁puedes	-8.66248
▁podría	-8.66263
De	-8.66406
▁Your	-8.66626
ún	-8.66638
▁nosotros	-8.66737
▁dis	-8.66771
▁seguro	-8.6686
▁own	-8.67232
▁often	-8.67397
▁pa	-8.67468
▁boy	-8.67495
▁hermana	-8.67601
▁Sami	-8.67617
▁great	-8.67703
▁sleep	-8.67771
▁habitación	-8.67853
▁soon	-8.67872
ng	-8.6793
▁sabía	-8.68596
▁ask	-8.68603
ation	-8.68626
▁auto	-8.69276
▁O	-8.69668
ge	-8.69758
▁encontrar	-8.69881
ieron	-8.70249
▁able	-8.70377
▁dónde	-8.70521
iendo	-8.70705
jo	-8.70716
▁So	-8.70839
til	-8.70962
les	-8.70977
▁Con	-8.71031
▁tienes	-8.71127
▁big	-8.71305
▁dejar	-8.71609
▁keep	-8.71773
▁parte	-8.71791
▁pu	-8.71834
ist	-8.71986
sta	-8.72282
▁remember	-8.72291
um	-8.72392
▁ayer	-8.72447
▁pi	-8.72455
▁letter	-8.72456
▁Australia	-8.7255
▁show	-8.72561
▁train	-8.72595
▁Debería	-8.72654
▁Necesit	-8.72692
▁comida	-8.72692
▁enough	-8.72895
▁wrong	-8.72942
id	-8.73312
▁stop	-8.73478
▁Nadie	-8.73597
▁done	-8.73888
▁cold	-8.7393
▁Una	-8.73984
ida	-8.74001
▁grande	-8.74264
fi	-8.74492
▁open	-8.74954
▁Todo	-8.75005
▁pay	-8.75025
Me	-8.75104
ate	-8.75246
▁cannot	-8.75326
▁looking	-8.75363
▁tus	-8.75592
▁país	-8.76076
▁hand	-8.76307
án	-8.76432
▁visto	-8.76671
▁kind	-8.76794
▁todas	-8.76883
▁tra	-8.7692
▁saber	-8.77005
▁feliz	-8.77076
▁food	-8.77076
▁historia	-8.77076
▁true	-8.77212
▁ro	-8.77436
▁ellos	-8.77479
▁eres	-8.77642
▁care	-8.77789
▁bed	-8.77923
▁wasn	-8.78043
▁d	-8.78146
▁yet	-8.78215
▁allí	-8.78257
ad	-8.78294
ther	-8.78441
▁young	-8.78444
▁cu	-8.78475
ive	-8.78639
▁tren	-8.78729
▁leer	-8.78763
dos	-8.78896
▁contra	-8.79252
▁around	-8.7928
aba	-8.7932
per	-8.79385
▁Voy	-8.79418
▁forma	-8.79424
tor	-8.79481
▁ba	-8.79666
▁duran	-8.7976
▁far	-8.79787
▁study	-8.80055
▁muchos	-8.80102
▁Re	-8.80177
▁happened	-8.80271
ación	-8.8037
▁hear	-8.80528
▁which	-8.81246
▁seen	-8.81291
▁Hoy	-8.8135
▁clase	-8.81423
▁heard	-8.81524
▁nuestra	-8.81547
▁visit	-8.82012
▁Esper	-8.82062
▁nuestro	-8.82132
▁han	-8.82145
▁debe	-8.82172
▁Puede	-8.82197
Cuándo	-8.82388
▁such	-8.82408
▁vino	-8.82475
ry	-8.82478
▁lleva	-8.82479
▁while	-8.82531
▁aprender	-8.82542
▁answer	-8.82585
▁profesor	-8.82743
▁difficult	-8.82819
▁libros	-8.82861
▁books	-8.8305
iste	-8.83162
▁gato	-8.8321
▁todavía	-8.83262
▁tomar	-8.83342
▁another	-8.83399
▁part	-8.83442
▁mo	-8.83508
▁café	-8.83543
ha	-8.83659
▁married	-8.83834
gún	-8.84052
lu	-8.84135
▁To	-8.84266
▁mu	-8.84349
▁bueno	-8.84373
▁creo	-8.84568
▁sol	-8.84577
▁gustan	-8.84585
ine	-8.8461
▁city	-8.84622
▁alguna	-8.84673
▁alone	-8.84793
▁woman	-8.84862
▁since	-8.84892
▁once	-8.84904
▁change	-8.85031
▁Solo	-8.85042
▁Ahora	-8.85167
▁toda	-8.85266
▁pronto	-8.85302
▁casi	-8.85341
▁momento	-8.85473
▁sido	-8.85521
▁turn	-8.85641
▁fácil	-8.85702
▁wish	-8.85923
▁hotel	-8.86063
▁these	-8.86255
▁ayudar	-8.86265
tal	-8.8628
▁queda	-8.86334
ás	-8.86525
▁vas	-8.86558
za	-8.86566
▁ta	-8.86616
ces	-8.86797
▁dream	-8.86941
▁fiesta	-8.86941
▁muchas	-8.87154
▁called	-8.87234
gu	-8.87251
▁familia	-8.87309
▁coffee	-8.87393
▁truth	-8.87393
▁hijo	-8.87449
▁g	-8.87499
0	-8.87529
▁party	-8.87787
ica	-8.8809
▁hate	-8.88315
rte	-8.88416
▁ago	-8.88532
▁hospital	-8.88607
▁rápido	-8.88607
ú	-8.88656
si	-8.88814
▁haciendo	-8.89067
▁fin	-8.893
▁sal	-8.89343
▁cost	-8.89401
▁mind	-8.89551
▁b	-8.89595
▁knew	-8.89837
▁cama	-8.89912
▁vive	-8.89923
rd	-8.89926
▁Pens	-8.89958
▁each	-8.90011
▁mayor	-8.90112
▁days	-8.90241
rme	-8.90255
▁importante	-8.90295
▁vivir	-8.90304
▁parents	-8.90458
▁Siempre	-8.90467
qui	-8.90541
▁hu	-8.90684
▁música	-8.9077
▁miedo	-8.90798
fe	-8.91057
▁necesita	-8.91187
▁write	-8.9126
im	-8.91379
▁par	-8.91451
▁padres	-8.91542
▁diez	-8.916
▁important	-8.91611
▁conmigo	-8.91711
▁sí	-8.91906
▁small	-8.92027
▁red	-8.92061
▁die	-8.9224
▁podía	-8.92344
dor	-8.92381
▁P	-8.92421
▁carta	-8.92497
ty	-8.9264
▁accident	-8.92667
less	-8.92709
▁Ere	-8.92762
▁few	-8.9281
lmost	-8.93047
▁pregunta	-8.9316
▁game	-8.93209
sión	-8.93235
▁Japan	-8.93299
▁family	-8.93299
bra	-8.9342
▁joven	-8.9362
▁Ma	-8.93782
▁looks	-8.93875
▁pasa	-8.93923
▁contigo	-8.93943
▁knows	-8.94089
▁película	-8.94265
▁wife	-8.94268
▁Com	-8.94353
ina	-8.9438
▁salir	-8.94628
▁died	-8.94921
man	-8.94965
▁ve	-8.95043
▁Japón	-8.95077
▁llegar	-8.95275
ista	-8.95358
▁tired	-8.95441
▁cosa	-8.95918
▁child	-8.96051
▁sólo	-8.9606
▁cinco	-8.96224
▁those	-8.96394
▁imp	-8.96685
ante	-8.96848
▁table	-8.96928
▁primera	-8.96939
▁r	-8.96955
▁accidente	-8.97044
▁matter	-8.97059
ful	-8.97153
▁word	-8.97758
▁siento	-8.97887
▁easy	-8.97887
▁light	-8.9794
▁Her	-8.97958
▁donde	-8.98019
▁tried	-8.98026
".	-8.98036
▁end	-8.98072
▁"¿	-8.98075
▁music	-8.9809
▁lives	-8.98171
remos	-8.98178
▁amor	-8.98325
▁Tatoeba	-8.98399
▁importa	-8.98403
▁someone	-8.98412
▁fun	-8.98414
fa	-8.98541
▁viene	-8.98732
C	-8.98852
▁nueva	-8.98898
▁watch	-8.98969
▁through	-8.99067
▁under	-8.99259
▁hi	-8.9938
▁color	-8.99402
gi	-8.99504
▁Estaba	-8.99673
▁afraid	-8.99748
▁les	-8.99852
ran	-8.9993
▁cerca	-8.99966
▁Ca	-9.00156
▁try	-9.00245
▁ahí	-9.00435
▁f	-9.00509
▁tipo	-9.00689
▁five	-9.0072
▁walk	-9.01033
encia	-9.0107
▁Our	-9.01332
▁eyes	-9.01515
▁fuerte	-9.01734
das	-9.02049
cio	-9.02162
▁Debe	-9.02465
▁Esa	-9.02599
▁wait	-9.02619
▁Sa	-9.02654
▁busy	-9.0267
ria	-9.02674
▁started	-9.02758
enemos	-9.02778
▁likes	-9.0284
▁hair	-9.02995
▁talking	-9.03014
ke	-9.03028
▁trabajar	-9.03358
▁getting	-9.03358
ones	-9.03373
Cuánto	-9.03435
▁seems	-9.03443
▁Fue	-9.03804
ies	-9.03847
▁ojos	-9.03898
ero	-9.03995
▁pan	-9.04008
▁question	-9.04243
▁pueden	-9.04413
▁encanta	-9.04566
amente	-9.04632
ie	-9.04869
▁Tú	-9.04998
▁Vi	-9.05008
▁together	-9.05008
▁realmente	-9.05051
▁na	-9.05076
▁looked	-9.0511
cha	-9.05262
he	-9.05381
▁palabras	-9.0542
▁start	-9.05635
▁God	-9.05652
bu	-9.05874
▁phone	-9.0596
▁dar	-9.05983
▁anyone	-9.0627
imos	-9.06456
▁sa	-9.06546
▁será	-9.06556
▁palabra	-9.06591
ente	-9.06786
▁hurt	-9.07014
▁teléfono	-9.07192
▁himself	-9.07192
odavía	-9.07198
▁bo	-9.07236
▁Dios	-9.07236
▁alto	-9.07309
▁haven	-9.07375
era	-9.07528
▁acuerdo	-9.0756
ue	-9.07614
▁run	-9.07772
▁capital	-9.0793
▁problemas	-9.08292
▁myself	-9.08302
▁Japanese	-9.08302
ados	-9.08384
▁cha	-9.08455
▁mano	-9.0849
ho	-9.0853
▁horas	-9.08537
cción	-9.08539
▁close	-9.08791
▁present	-9.08864
▁hijos	-9.08997
▁real	-9.09011
▁com	-9.09049
j	-9.09109
▁eating	-9.09182
▁anymore	-9.09237
▁mientras	-9.09274
▁estudiar	-9.09301
▁class	-9.09452
▁usual	-9.09487
cul	-9.09565
▁Di	-9.09581
Quiere	-9.09704
▁fast	-9.09736
▁policía	-9.09802
▁playing	-9.09857
▁jugar	-9.09888
▁men	-9.09902
▁says	-9.09986
▁might	-9.09991
ol	-9.09993
▁Pa	-9.10071
▁pasar	-9.10143
▁Would	-9.10369
▁acerca	-9.10371
▁bastante	-9.10372
▁menudo	-9.10373
▁else	-9.10389
▁rec	-9.10768
▁early	-9.10791
▁reading	-9.1084
las	-9.10995
▁free	-9.11151
▁dicho	-9.1116
▁camino	-9.11324
che	-9.11495
▁dormir	-9.11901
▁D	-9.11925
ers	-9.12116
▁ce	-9.12163
gar	-9.12219
▁error	-9.12299
▁B	-9.12775
▁window	-9.1287
▁yourself	-9.1287
▁lengua	-9.12987
▁razón	-9.13064
▁Parece	-9.13065
▁mesa	-9.13122
▁calle	-9.13151
▁sentence	-9.13213
▁coming	-9.13321
▁face	-9.1337
▁punto	-9.13456
Has	-9.13477
Puedo	-9.13585
▁Co	-9.13938
▁words	-9.14003
▁juego	-9.14045
▁volver	-9.1406
▁Some	-9.14156
▁Estamos	-9.14334
▁Come	-9.14661
▁high	-9.14741
▁Does	-9.14746
ant	-9.14897
▁fire	-9.14969
ico	-9.15038
▁forget	-9.15039
1	-9.15169
▁pueda	-9.1544
▁cara	-9.15544
▁trabaja	-9.15718
▁hours	-9.15732
▁bit	-9.15936
ac	-9.15969
▁ran	-9.16032
▁number	-9.16236
▁One	-9.16244
cer	-9.16264
▁número	-9.16438
▁between	-9.1664
▁dinner	-9.17045
▁emp	-9.17132
▁heart	-9.17251
▁cabeza	-9.17251
▁pasó	-9.17459
Puedes	-9.17492
Estás	-9.17529
S	-9.17811
▁tuvo	-9.17849
▁falta	-9.18066
Tienes	-9.1807
▁ventana	-9.18075
ura	-9.18204
▁comp	-9.18371
ction	-9.18404
▁pequeño	-9.18477
▁escribir	-9.1889
▁bu	-9.18904
io	-9.19053
▁also	-9.19113
▁dur	-9.19229
ban	-9.19324
▁tenemos	-9.1935
▁working	-9.19405
▁aren	-9.19448
nce	-9.19605
▁sick	-9.19709
▁gra	-9.19717
▁Po	-9.19848
▁venir	-9.19958
ling	-9.19989
▁idioma	-9.2009
▁swim	-9.20143
ber	-9.20244
▁puso	-9.20404
▁muerte	-9.20558
red	-9.20576
▁everyone	-9.20576
▁bar	-9.20599
▁temprano	-9.20768
▁Para	-9.20771
▁lado	-9.20869
▁Mar	-9.20875
▁snow	-9.20979
▁death	-9.21202
▁having	-9.21251
▁última	-9.21358
oso	-9.21431
▁happen	-9.21603
▁full	-9.21629
▁conoce	-9.21667
▁sent	-9.2177
▁meeting	-9.21813
▁ga	-9.21823
ró	-9.21862
▁And	-9.21871
▁viejo	-9.22041
▁murió	-9.22041
cho	-9.22057
▁mine	-9.22073
▁manera	-9.22106
▁reason	-9.22255
▁esposa	-9.22255
tar	-9.22327
▁dije	-9.22516
▁result	-9.22682
▁dejó	-9.22686
ras	-9.22766
▁único	-9.22898
▁China	-9.22907
▁tal	-9.22908
▁hubiera	-9.23114
▁piano	-9.23114
Sabes	-9.23117
▁month	-9.2316
▁ho	-9.23359
ud	-9.23414
▁misma	-9.23475
▁fell	-9.23521
▁computer	-9.23546
▁office	-9.23572
▁fall	-9.23618
és	-9.23647
▁milk	-9.2366
ous	-9.23672
ciones	-9.2373
▁Everyone	-9.23767
▁pen	-9.23835
▁ma	-9.23927
▁nice	-9.24011
▁ocupado	-9.2403
▁favorite	-9.24217
▁An	-9.24348
▁estaban	-9.24507
▁meet	-9.24565
▁fueron	-9.24658
▁rest	-9.24672
▁hot	-9.24805
▁frío	-9.24855
por	-9.24967
rio	-9.25055
▁story	-9.25085
sh	-9.25116
▁both	-9.25182
▁mucha	-9.25229
▁human	-9.25314
qu	-9.25355
▁against	-9.25376
▁haya	-9.25395
▁spend	-9.25521
▁travel	-9.25532
▁vio	-9.25537
có	-9.25665
▁police	-9.25959
▁become	-9.2596
▁makes	-9.25996
▁At	-9.26076
▁podemos	-9.26181
▁rich	-9.26182
▁cualquier	-9.26366
▁white	-9.26404
iza	-9.26411
cada	-9.26459
▁Go	-9.26488
▁move	-9.26977
▁Monday	-9.27075
▁poder	-9.27077
▁head	-9.27238
▁Mr	-9.27263
▁born	-9.27302
aste	-9.27313
▁TV	-9.27332
gue	-9.27445
▁short	-9.27525
▁estamos	-9.2758
▁Ba	-9.27624
ure	-9.27774
▁war	-9.27778
zo	-9.27842
▁final	-9.27917
verdad	-9.27955
▁lunes	-9.27984
▁hombres	-9.28013
00	-9.2815
▁movie	-9.28175
▁leche	-9.28176
▁extranjero	-9.28203
T	-9.28228
▁living	-9.28437
osa	-9.28456
▁met	-9.28606
con	-9.28669
▁bajo	-9.28685
▁Ve	-9.28728
▁tienda	-9.28888
▁quien	-9.28914
▁chica	-9.28914
▁pudo	-9.2897
ian	-9.2902
▁park	-9.29071
▁media	-9.2921
P	-9.29262
ness	-9.29294
▁pelo	-9.29316
end	-9.29433
▁four	-9.29585
up	-9.29591
▁aún	-9.29765
▁drive	-9.29999
▁fi	-9.30007
car	-9.30036
▁mistake	-9.30064
▁decided	-9.30179
▁Nobody	-9.30268
▁respuesta	-9.30268
▁station	-9.30269
▁tree	-9.30303
▁usar	-9.30322
Hay	-9.30376
▁suficiente	-9.30456
▁street	-9.305
▁different	-9.305
▁lunch	-9.305
ita	-9.30752
▁students	-9.30782
▁plane	-9.30961
▁Could	-9.30966
▁estación	-9.31014
▁sueño	-9.31022
▁clean	-9.31199
▁six	-9.3137
ip	-9.31424
▁pretty	-9.31434
▁nadar	-9.31529
▁arrived	-9.31591
▁dolor	-9.3168
▁minutos	-9.31721
▁song	-9.3179
▁large	-9.31812
ight	-9.31935
▁cansado	-9.31971
▁esperar	-9.32077
▁past	-9.32449
▁río	-9.32613
▁juntos	-9.32681
▁mean	-9.32782
▁U	-9.32816
▁verano	-9.32852
▁waiting	-9.32885
▁fish	-9.32931
▁li	-9.3296
▁Estado	-9.32983
▁goes	-9.33018
gen	-9.33216
▁prefer	-9.33311
▁unos	-9.33364
▁hija	-9.33365
▁llevar	-9.33583
▁bi	-9.33879
▁cuatro	-9.34046
▁felt	-9.34048
▁age	-9.34241
▁ning	-9.34282
bor	-9.34407
cas	-9.34689
▁guerra	-9.34771
▁entender	-9.34772
hi	-9.35006
▁tonight	-9.35019
▁trying	-9.35056
▁minutes	-9.35102
▁shoes	-9.35156
▁daughter	-9.35257
▁win	-9.35317
▁fe	-9.35394
▁needs	-9.35401
▁ready	-9.35426
ish	-9.35633
▁niña	-9.35745
ros	-9.35791
▁black	-9.35991
▁summer	-9.35991
5	-9.362
▁popular	-9.36237
illa	-9.36443
▁reloj	-9.36483
▁Will	-9.36491
▁Tell	-9.36519
▁trust	-9.36729
▁salud	-9.36752
▁sorry	-9.36761
ated	-9.3681
▁otros	-9.36874
ally	-9.36925
▁médico	-9.36977
▁perder	-9.36985
▁kill	-9.36991
▁van	-9.37004
▁angry	-9.37226
▁realidad	-9.3725
▁pensar	-9.37267
▁lu	-9.373
▁posible	-9.37724
▁languages	-9.37834
▁town	-9.3786
▁bicicleta	-9.37973
▁esté	-9.38026
▁fa	-9.38036
lguien	-9.38055
▁caja	-9.3806
ible	-9.38087
▁Bo	-9.38128
▁exist	-9.3827
▁Spanish	-9.38475
▁pidió	-9.38475
▁edad	-9.38499
▁box	-9.38505
▁Ni	-9.38639
▁mío	-9.38691
▁gone	-9.38699
▁español	-9.38727
▁Unidos	-9.3873
▁Many	-9.38842
▁cree	-9.38855
▁comes	-9.38893
▁turned	-9.39127
▁ropa	-9.39288
▁examen	-9.39294
iera	-9.39373
▁acaba	-9.39409
▁viaje	-9.39487
▁longer	-9.39646
▁zapatos	-9.39925
▁inter	-9.39981
▁cuarto	-9.39996
ito	-9.40007
▁creer	-9.40261
▁order	-9.40276
▁luz	-9.40284
▁quite	-9.40327
lar	-9.4049
▁Ayer	-9.40513
▁Which	-9.40514
ya	-9.4072
▁libre	-9.40741
▁19	-9.40754
▁Ken	-9.40843
▁sun	-9.40863
▁llega	-9.40867
▁sino	-9.40918
2	-9.40972
8	-9.41015
▁interesante	-9.41048
▁Tra	-9.41056
▁hablando	-9.41191
▁river	-9.41282
▁fr	-9.41337
▁times	-9.41481
▁For	-9.41645
▁mujeres	-9.4168
▁near	-9.41777
▁broke	-9.41875
am	-9.42026
▁rico	-9.42078
▁May	-9.42193
▁cocina	-9.42285
▁interesting	-9.4239
▁regalo	-9.42585
qué	-9.42726
▁baby	-9.42854
▁wonder	-9.42865
▁listen	-9.42971
▁dead	-9.42981
▁2	-9.43073
▁-	-9.43301
▁ninguna	-9.43373
▁taxi	-9.43385
▁algunos	-9.4343
6	-9.43637
▁radio	-9.43721
▁ate	-9.43814
▁corazón	-9.43903
▁others	-9.44009
king	-9.44039
▁company	-9.44169
▁tea	-9.44178
rado	-9.44204
▁Li	-9.44425
▁oficina	-9.44436
▁llamar	-9.44462
gan	-9.44509
▁lie	-9.44515
▁As	-9.4474
▁perdido	-9.44971
▁estudiantes	-9.45191
▁stand	-9.45308
▁arm	-9.45332
▁Son	-9.4541
▁store	-9.45514
▁animal	-9.45607
▁largo	-9.45789
▁killed	-9.46036
▁making	-9.4606
▁Ven	-9.46229
▁R	-9.46291
ual	-9.46316
▁moment	-9.4633
▁t	-9.4642
▁primer	-9.46497
▁dark	-9.46504
▁weather	-9.46595
▁secret	-9.46811
▁trouble	-9.46868
▁Gracias	-9.46903
ndi	-9.46954
▁sac	-9.47041
▁finished	-9.47069
nza	-9.4709
led	-9.47236
▁último	-9.47417
▁deberías	-9.47602
▁bring	-9.47703
▁Hi	-9.47755
▁estos	-9.47797
Está	-9.47849
▁iba	-9.47976
▁compró	-9.47982
▁oído	-9.48016
▁wear	-9.48019
▁ven	-9.4803
▁3	-9.48329
▁Mo	-9.48346
▁cambiar	-9.48368
▁sola	-9.4837
▁seis	-9.48457
aña	-9.48501
▁diccionario	-9.48523
▁became	-9.48524
9	-9.48535
▁German	-9.48581
ific	-9.48604
▁studying	-9.48645
▁whole	-9.48648
▁Aquí	-9.48802
▁speaks	-9.48813
▁hands	-9.49076
ster	-9.49164
▁té	-9.49258
▁lived	-9.49351
▁llegó	-9.49361
▁point	-9.49364
age	-9.49379
mer	-9.49487
Sólo	-9.49508
▁derecho	-9.49646
▁Va	-9.49648
▁possible	-9.49654
▁chance	-9.49661
▁tri	-9.4976
▁sing	-9.49871
fu	-9.49879
▁televisión	-9.49924
▁ido	-9.50091
▁Hace	-9.50095
▁Ziri	-9.50206
land	-9.50228
▁sell	-9.50235
▁dress	-9.50254
▁Give	-9.50267
▁post	-9.50469
▁Nosotros	-9.50489
vis	-9.50583
▁pie	-9.50656
▁hour	-9.50667
can	-9.50678
▁precio	-9.50692
ak	-9.50709
▁caso	-9.50717
▁culpa	-9.50755
▁preguntó	-9.5079
▁árbol	-9.50871
for	-9.50952
▁gas	-9.5098
▁began	-9.51001
▁haga	-9.51026
▁carne	-9.51045
▁manos	-9.51144
▁poner	-9.51179
nder	-9.51205
!"	-9.51279
▁frase	-9.51294
ame	-9.51296
▁terrible	-9.51344
▁stupid	-9.51344
▁enfermo	-9.51345
▁bebé	-9.51346
▁calor	-9.51397
’	-9.51631
tos	-9.51691
▁poor	-9.51702
▁chico	-9.51863
▁malo	-9.51922
▁act	-9.51924
▁lejos	-9.51929
▁cierto	-9.51943
▁buscando	-9.51945
▁pain	-9.51999
▁reunión	-9.52207
▁vaya	-9.52214
▁afternoon	-9.52495
ador	-9.52518
▁hice	-9.52587
▁Bu	-9.52647
▁On	-9.52699
▁picture	-9.52704
ko	-9.53027
▁deja	-9.53076
▁student	-9.53305
men	-9.5331
wa	-9.53366
crib	-9.53433
▁flores	-9.53458
▁mala	-9.53488
▁espera	-9.53582
▁ge	-9.53602
▁pequeña	-9.5366
▁less	-9.53845
▁sign	-9.5385
ph	-9.53982
ach	-9.54189
▁cut	-9.54225
▁autobús	-9.54247
▁cook	-9.54333
▁crea	-9.54386
ez	-9.54396
▁Nuestro	-9.54542
▁oír	-9.54675
▁pagar	-9.54838
3	-9.5487
▁20	-9.55075
▁ama	-9.55081
▁wrote	-9.55135
▁G	-9.55341
▁saying	-9.55351
▁clothes	-9.55432
▁Just	-9.55495
arse	-9.55564
▁canción	-9.55628
▁sería	-9.55698
▁Christmas	-9.55731
▁least	-9.5575
▁morir	-9.55762
▁sentido	-9.55772
▁Que	-9.55825
▁then	-9.55993
▁terminar	-9.55995
▁Ho	-9.56054
▁esperando	-9.56081
▁American	-9.56266
▁breakfast	-9.5633
▁ruido	-9.56331
▁nu	-9.56504
▁animales	-9.56542
▁dictionary	-9.56632
▁Take	-9.56632
▁sub	-9.56649
ntes	-9.5682
▁chocolate	-9.56934
▁control	-9.56934
ever	-9.57078
▁sale	-9.57415
▁trip	-9.57492
▁test	-9.57524
▁blanco	-9.57541
▁medio	-9.57576
▁spent	-9.57846
▁grow	-9.57912
▁Ch	-9.57926
▁duro	-9.57945
▁later	-9.58081
▁funciona	-9.5819
▁America	-9.58217
▁building	-9.58219
▁gu	-9.58261
▁older	-9.58306
▁tocar	-9.58331
▁pat	-9.58357
▁case	-9.5846
▁significa	-9.58618
▁personal	-9.58634
▁muerto	-9.58766
▁thinking	-9.58775
ino	-9.58841
▁ne	-9.58893
▁behind	-9.59075
▁entonces	-9.59075
▁quedó	-9.59133
▁ganas	-9.59134
▁chi	-9.59201
▁entrar	-9.59228
▁People	-9.59384
▁touch	-9.59422
▁Na	-9.59494
▁listo	-9.59581
ki	-9.59611
▁exam	-9.59641
▁avión	-9.59697
▁fumar	-9.59747
ger	-9.59752
▁general	-9.59856
▁strong	-9.59903
▁pueblo	-9.60006
▁women	-9.6001
tiva	-9.60133
▁colegio	-9.60319
▁opinion	-9.60319
▁After	-9.60319
▁equipo	-9.60328
▁cake	-9.60367
▁parque	-9.60367
▁Today	-9.60496
▁York	-9.60673
▁vivo	-9.60698
▁Has	-9.60738
▁break	-9.60947
▁homework	-9.60957
▁Sunday	-9.61262
▁rather	-9.61263
▁anoche	-9.61264
▁cielo	-9.61265
iente	-9.61324
cy	-9.61401
▁sabes	-9.61434
ap	-9.6146
▁sound	-9.6148
)	-9.61579
▁japonés	-9.61579
▁Había	-9.61579
▁garden	-9.61579
▁forgot	-9.61589
▁seven	-9.61685
ical	-9.6169
▁señor	-9.61762
▁Fui	-9.61893
▁fact	-9.61893
▁New	-9.61916
▁flowers	-9.61922
4	-9.61941
taking	-9.62067
▁pass	-9.62184
▁tarea	-9.62218
▁mad	-9.62314
▁toma	-9.62314
▁finish	-9.62317
rás	-9.6241
▁caballo	-9.62534
▁along	-9.62541
▁hambre	-9.62577
ren	-9.62589
▁vista	-9.62598
▁Era	-9.62619
▁necesito	-9.62982
▁vamos	-9.63062
▁learning	-9.63119
tivo	-9.63154
▁10	-9.63174
▁birthday	-9.63176
▁vacaciones	-9.63181
▁Ten	-9.63203
▁Sus	-9.63321
En	-9.63363
▁team	-9.63429
▁triste	-9.63535
▁fine	-9.63557
▁somos	-9.63562
▁odia	-9.63587
mina	-9.63709
Lo	-9.63719
▁expensive	-9.63822
▁estuvo	-9.63823
▁(	-9.63824
▁cuidado	-9.63853
ismo	-9.63972
V	-9.6399
▁consider	-9.64011
▁veo	-9.64076
▁Now	-9.64415
▁extraño	-9.64473
▁mountain	-9.64473
▁wine	-9.64522
▁works	-9.64552
▁half	-9.64554
▁sad	-9.64718
ff	-9.64789
▁vestido	-9.648
▁stopped	-9.64812
▁Deja	-9.64965
▁Ju	-9.64966
▁hit	-9.65033
▁capaz	-9.65127
▁W	-9.65171
▁Y	-9.65204
▁side	-9.65308
E	-9.65333
▁«	-9.65453
▁natural	-9.65454
▁dangerous	-9.65463
▁Jane	-9.65467
▁salió	-9.65495
▁But	-9.65642
▁suerte	-9.65794
▁cena	-9.65829
▁primero	-9.65869
Le	-9.65917
▁ganar	-9.66003
▁cumpleaños	-9.66117
▁res	-9.66191
▁Ro	-9.66314
▁restaurant	-9.66419
▁dólares	-9.6645
▁lluvia	-9.6645
▁public	-9.6645
▁second	-9.66452
▁seem	-9.66476
O	-9.6649
▁paper	-9.66491
▁mayoría	-9.66542
ín	-9.66648
▁simple	-9.6674
▁business	-9.66783
▁éxito	-9.66783
▁baño	-9.66788
▁novia	-9.66804
▁ice	-9.66974
▁escuchar	-9.67162
wn	-9.67235
▁eran	-9.67252
▁wearing	-9.67364
▁jardín	-9.67453
▁blue	-9.67453
▁strange	-9.67496
mento	-9.6753
▁novel	-9.67539
▁health	-9.6757
▁Sal	-9.67615
veral	-9.67617
▁piece	-9.67738
▁famous	-9.6779
▁causa	-9.67808
Cuántos	-9.68061
ving	-9.68096
▁husband	-9.68128
▁oportunidad	-9.68128
▁animals	-9.68138
▁secreto	-9.68194
▁estudiante	-9.6821
▁tenido	-9.68214
▁normal	-9.68424
▁pregunto	-9.68467
▁nieve	-9.68468
▁papel	-9.68468
▁tennis	-9.68469
▁tenis	-9.68537
▁outside	-9.68545
Tom	-9.68551
▁nuestros	-9.68732
▁Mis	-9.68806
▁fútbol	-9.68807
▁parecía	-9.68807
▁perdió	-9.68807
▁watching	-9.68871
▁pude	-9.68933
▁smell	-9.69149
▁ju	-9.69298
▁visitar	-9.69392
▁ideas	-9.69544
▁news	-9.69759
▁pobre	-9.69835
▁caught	-9.69842
ance	-9.70135
▁algunas	-9.70269
▁changed	-9.70467
▁montaña	-9.70527
▁preguntas	-9.70604
▁preocupa	-9.70657
▁Vamos	-9.70686
▁loco	-9.70723
▁compañía	-9.70872
▁consejo	-9.70873
▁worry	-9.70874
▁count	-9.7088
▁restaurante	-9.70905
▁law	-9.70987
▁llave	-9.71025
▁meat	-9.71114
ab	-9.71116
▁idiomas	-9.71301
▁pena	-9.71389
▁cry	-9.71467
▁propia	-9.71571
▁Look	-9.71574
▁horse	-9.71599
▁haría	-9.71732
▁siente	-9.71754
▁thank	-9.71869
▁tall	-9.71911
▁mas	-9.72029
▁Habla	-9.72031
D	-9.72068
▁Cu	-9.72145
▁dance	-9.72212
▁enter	-9.72253
▁Every	-9.72267
▁bicycle	-9.72273
▁opinión	-9.72273
▁hungry	-9.7228
▁siquiera	-9.72294
▁quickly	-9.72303
▁road	-9.72314
▁cur	-9.72388
▁enjoy	-9.72395
ton	-9.72395
▁fui	-9.7248
▁K	-9.72481
▁wa	-9.72482
▁lose	-9.72489
rán	-9.7259
▁front	-9.72615
▁negro	-9.72627
▁Da	-9.72654
▁sold	-9.72765
ring	-9.72773
▁Mu	-9.72898
▁solía	-9.72916
▁salt	-9.72951
▁Spain	-9.72981
▁asunto	-9.72982
▁girlfriend	-9.72984
side	-9.72999
▁trata	-9.73305
▁loves	-9.73328
▁vuelta	-9.73337
▁Layla	-9.73343
bla	-9.73399
▁Después	-9.73694
▁floor	-9.73694
▁empezó	-9.73699
▁cup	-9.73704
▁k	-9.73737
▁perros	-9.73814
▁Puedo	-9.73816
▁surprised	-9.73844
▁safe	-9.73887
▁hat	-9.7391
M	-9.74038
▁advice	-9.74053
▁cerveza	-9.74053
▁España	-9.74053
▁seguir	-9.74068
▁catch	-9.74179
▁beber	-9.74261
▁M	-9.74311
▁return	-9.74538
ced	-9.74564
rate	-9.74694
El	-9.74734
▁edificio	-9.74773
▁decision	-9.74774
▁ley	-9.74819
ism	-9.74847
▁tomó	-9.74871
▁perfect	-9.7489
▁speaking	-9.74892
▁Des	-9.74951
▁sat	-9.74964
▁venga	-9.7499
▁hundred	-9.75136
▁sentences	-9.75224
▁Dan	-9.75252
brought	-9.75257
▁bear	-9.75382
▁azul	-9.75501
▁tras	-9.75502
▁quit	-9.75697
ier	-9.75722
▁questions	-9.75737
▁loved	-9.75804
▁mil	-9.75862
▁alemán	-9.75864
▁dentro	-9.75865
▁whe	-9.75879
▁agree	-9.75938
▁partido	-9.75939
▁interested	-9.75976
▁aire	-9.76012
▁grandes	-9.76048
▁crees	-9.7615
▁tro	-9.76173
uc	-9.7623
▁smoke	-9.76231
▁doubt	-9.76232
▁bank	-9.76233
▁puesto	-9.764
▁hasn	-9.76501
▁Get	-9.76531
▁written	-9.76598
▁kept	-9.76598
▁air	-9.76686
▁L	-9.76689
one	-9.76953
▁smoking	-9.76967
Cuánta	-9.76967
▁siete	-9.76972
▁foto	-9.76981
▁With	-9.76983
xi	-9.77106
Ha	-9.77182
▁honest	-9.77202
▁clear	-9.7724
▁alrededor	-9.77338
▁allá	-9.77456
▁careful	-9.77646
▁Mañana	-9.77709
▁cuanto	-9.7771
▁banco	-9.7771
▁propio	-9.7771
▁5	-9.77711
▁hold	-9.77712
nes	-9.78012
▁certain	-9.78083
▁inteligente	-9.78083
▁verte	-9.78084
▁fuego	-9.78109
▁alta	-9.78165
▁accept	-9.78221
▁cámara	-9.78457
▁especial	-9.78457
▁próximo	-9.78457
▁report	-9.78471
▁beer	-9.78488
adas	-9.78538
bre	-9.78573
▁gatos	-9.78683
▁star	-9.78687
▁piensa	-9.78787
▁errores	-9.78821
▁Chinese	-9.78833
▁larga	-9.78854
▁conozco	-9.78861
▁cap	-9.79023
gó	-9.79169
▁empezar	-9.79212
▁Even	-9.79214
▁hermosa	-9.79232
▁sigue	-9.79335
▁entiendo	-9.7961
▁Maybe	-9.79617
tan	-9.79662
▁sense	-9.79663
7	-9.79695
▁problems	-9.79819
▁St	-9.80152
",	-9.80242
▁quedar	-9.80309
ará	-9.80338
▁tío	-9.80353
▁sitio	-9.80363
▁social	-9.80367
▁correct	-9.80396
▁sha	-9.80422
ler	-9.8046
▁miss	-9.80567
Se	-9.80632
▁biblioteca	-9.80734
son	-9.80754
▁campo	-9.80818
▁wall	-9.80859
zar	-9.8087
▁cantar	-9.80899
line	-9.80994
mu	-9.81007
▁France	-9.81119
▁sky	-9.81119
▁atención	-9.8112
▁cal	-9.81175
▁llorar	-9.8118
▁card	-9.81183
▁kiss	-9.81271
▁taste	-9.81297
lf	-9.81324
▁Navidad	-9.81505
▁experience	-9.81505
▁writing	-9.81505
▁check	-9.81505
▁dollars	-9.81505
▁enseña	-9.8154
out	-9.81769
ka	-9.8182
▁Tokyo	-9.81892
▁worth	-9.81893
endo	-9.82002
▁Toda	-9.82041
▁igual	-9.82093
▁contar	-9.82097
▁abuelo	-9.82282
▁Stop	-9.82282
▁camera	-9.82445
▁estará	-9.8254
den	-9.8258
▁bread	-9.82672
▁United	-9.82673
▁conducir	-9.82675
▁completamente	-9.82684
▁feeling	-9.82911
zó	-9.82951
▁demás	-9.83076
▁meses	-9.831
▁learned	-9.83113
ial	-9.83143
▁peor	-9.83171
▁Tokio	-9.8318
▁player	-9.83309
▁Everything	-9.83458
▁herself	-9.83458
▁Esperanto	-9.83459
▁key	-9.83634
▁future	-9.83853
▁sometimes	-9.83854
▁resultado	-9.83859
▁tenga	-9.83879
▁favorito	-9.83933
Cree	-9.84038
▁sit	-9.84059
▁cho	-9.84106
▁known	-9.8412
ega	-9.84134
ario	-9.84157
▁Francia	-9.8425
▁cambio	-9.8425
▁club	-9.8425
▁glad	-9.84259
▁solve	-9.84261
▁w	-9.84336
ries	-9.84468
hose	-9.84618
▁playa	-9.84635
▁habit	-9.84643
▁crazy	-9.84649
▁habría	-9.84649
▁cuesta	-9.8467
▁library	-9.84674
▁art	-9.84761
▁fear	-9.84826
▁eggs	-9.84951
ende	-9.85075
▁nació	-9.85227
▁Ka	-9.85396
▁begin	-9.85452
▁Usted	-9.85553
▁lista	-9.8556
▁arrive	-9.85583
▁Thank	-9.8572
▁played	-9.85721
▁beach	-9.85756
▁blood	-9.85853
▁completely	-9.85895
▁rojo	-9.85902
lic	-9.85911
dad	-9.85933
▁fra	-9.85937
▁Acab	-9.85975
▁guard	-9.8607
▁6	-9.86254
▁drunk	-9.86258
ient	-9.86383
▁needed	-9.86473
▁compar	-9.86484
▁vol	-9.86494
ví	-9.86534
▁huevos	-9.86539
▁boca	-9.86541
▁means	-9.86563
▁novela	-9.86607
▁quieras	-9.86651
▁fruit	-9.86665
▁th	-9.86682
▁thirty	-9.86692
▁noise	-9.86699
▁volvió	-9.86701
▁shirt	-9.86706
▁eaten	-9.8681
imiento	-9.86941
▁Sí	-9.8705
▁treinta	-9.87073
▁situación	-9.87073
chi	-9.87183
▁explain	-9.8725
▁peligroso	-9.87499
▁invierno	-9.87894
▁seemed	-9.88198
▁stayed	-9.88301
▁abroad	-9.88308
▁única	-9.88308
▁abrir	-9.88338
ua	-9.88389
▁trabajando	-9.88415
▁eye	-9.8864
▁diferencia	-9.88723
▁llover	-9.88723
▁sombrero	-9.88723
ound	-9.8877
aciones	-9.88799
▁Bill	-9.88816
▁drinking	-9.89032
▁voz	-9.8914
▁sur	-9.8926
▁Sin	-9.89438
▁kids	-9.89447
▁cuánto	-9.89558
▁quiet	-9.89563
▁Muchos	-9.89568
▁V	-9.89723
▁closed	-9.89745
▁estudia	-9.89756
▁hagas	-9.89794
▁takes	-9.89798
Y	-9.8983
cé	-9.89959
fer	-9.89976
▁futuro	-9.89978
▁fl	-9.89983
Quisiera	-9.90024
▁paid	-9.90031
▁aquel	-9.90267
▁situation	-9.904
▁Ojalá	-9.90437
▁super	-9.90443
▁helped	-9.90459
▁ball	-9.90493
▁barco	-9.90504
▁lleno	-9.90513
▁glass	-9.90638
▁guitar	-9.90729
▁pase	-9.90811
▁conseguir	-9.90823
▁pizza	-9.90823
▁debes	-9.90923
▁king	-9.91047
▁Pro	-9.9105
▁months	-9.91164
▁mistakes	-9.91198
▁uncle	-9.91246
▁imposible	-9.91249
▁voice	-9.91249
▁price	-9.91252
▁frente	-9.91266
▁J	-9.91279
clock	-9.91414
the	-9.91517
▁account	-9.91676
▁attention	-9.91676
▁duda	-9.91683
▁leyendo	-9.91683
▁encontró	-9.91716
▁bag	-9.91763
▁Pon	-9.91769
▁talked	-9.91781
▁cine	-9.91794
La	-9.91796
Ya	-9.91936
▁form	-9.92019
▁gana	-9.92032
▁kitchen	-9.92105
▁cuerpo	-9.92106
▁equivocado	-9.92154
▁opera	-9.92223
▁matar	-9.92332
▁Tierra	-9.92537
ide	-9.92556
▁send	-9.92568
▁eight	-9.92598
▁ves	-9.92697
▁promise	-9.92698
▁Pas	-9.92801
▁gift	-9.9297
▁finger	-9.9299
▁apple	-9.93085
▁San	-9.93178
▁add	-9.93273
▁u	-9.93318
▁States	-9.93405
▁body	-9.93406
▁cayó	-9.93406
▁invent	-9.93638
▁enfermedad	-9.93841
▁camisa	-9.93841
▁asleep	-9.93841
N	-9.93884
▁ill	-9.93921
▁Pero	-9.93964
ile	-9.94088
bur	-9.94231
▁experiencia	-9.94279
▁universidad	-9.94279
▁jugando	-9.94296
▁encontré	-9.94321
Ere	-9.9436
▁extra	-9.94408
tí	-9.94543
▁Odi	-9.94707
▁cuándo	-9.9472
▁Paris	-9.94725
▁brazo	-9.94727
▁joke	-9.94732
▁exactly	-9.94763
▁duele	-9.94793
▁probabl	-9.948
▁emb	-9.94812
▁worked	-9.94816
▁ship	-9.94899
▁sleeping	-9.94996
▁though	-9.95091
▁impossible	-9.95162
▁periódico	-9.95162
▁gracias	-9.95164
▁alive	-9.95295
ped	-9.95306
▁presidente	-9.95372
▁pal	-9.95424
▁passed	-9.95491
▁ci	-9.95511
▁draw	-9.95609
▁pretend	-9.95624
▁Life	-9.9563
▁Lu	-9.9565
▁winter	-9.95659
▁—	-9.95712
▁pone	-9.95837
▁crying	-9.95864
▁serio	-9.95997
▁expect	-9.96063
▁Jim	-9.96068
▁golf	-9.96185
▁laugh	-9.96212
▁arma	-9.96316
unt	-9.96419
▁peligro	-9.96427
▁enemigo	-9.96502
▁hiciste	-9.96502
▁mamá	-9.96502
▁Alguno	-9.96502
▁2:30	-9.96504
▁patient	-9.9651
▁chair	-9.96592
▁disc	-9.96607
▁Put	-9.96698
▁pesar	-9.96719
▁inside	-9.96733
▁pick	-9.96818
▁Everybody	-9.96952
▁newspaper	-9.96952
▁respect	-9.96958
▁taza	-9.96998
▁Tenía	-9.97077
▁suelo	-9.97153
B	-9.97161
▁dogs	-9.97258
▁quieren	-9.97316
cut	-9.97326
mate	-9.97335
▁Europe	-9.97361
▁París	-9.97405
▁modern	-9.97405
▁proud	-9.9746
▁guys	-9.97482
▁terminado	-9.97499
ze	-9.97526
vol	-9.97587
▁vaso	-9.97629
▁firm	-9.9772
▁opened	-9.9775
▁pedir	-9.97757
▁conocer	-9.97785
▁peso	-9.97939
▁foreign	-9.98015
shi	-9.98037
▁teach	-9.9806
▁finally	-9.98082
▁varia	-9.9812
▁common	-9.98317
▁Nothing	-9.98322
▁8	-9.98324
▁información	-9.98328
▁rato	-9.9833
▁novio	-9.98338
▁común	-9.98359
▁ear	-9.98374
ji	-9.9838
▁vendrá	-9.98444
▁glasses	-9.98518
▁scared	-9.98519
▁arte	-9.98521
▁rey	-9.9853
▁bird	-9.98549
para	-9.98663
▁amable	-9.9869
▁liked	-9.9869
▁reco	-9.98759
▁Uno	-9.9876
▁siguiente	-9.98775
▁spoke	-9.98781
▁Someone	-9.9879
▁follow	-9.98798
▁4	-9.98812
tió	-9.98876
▁siendo	-9.99021
▁shall	-9.99077
Con	-9.99107
▁Pi	-9.99185
▁machine	-9.99235
▁swimming	-9.99237
▁viajar	-9.99307
▁Han	-9.99337
▁fat	-9.9958
▁usa	-9.99604
▁casado	-9.99622
▁anybody	-9.99698
▁digas	-9.99698
▁necesario	-9.99698
▁ticket	-9.99698
▁course	-9.99699
▁esperanto	-9.99699
▁wind	-9.99768
▁seat	-9.99895
▁sp	-9.99964
▁fight	-9.99986
shed	-10.0003
▁dormido	-10.0016
▁native	-10.0016
▁comiendo	-10.0021
▁sepa	-10.0022
van	-10.0028
▁sala	-10.0031
▁Ar	-10.0032
arme	-10.0034
▁30	-10.0043
▁pasada	-10.0045
ple	-10.0045
▁manzana	-10.0045
caso	-10.0048
▁Mucha	-10.0056
▁Pe	-10.006
▁abogado	-10.0063
▁alcohol	-10.0063
▁blame	-10.0063
▁decisión	-10.0063
▁running	-10.0063
▁caliente	-10.0064
▁information	-10.0064
▁sitting	-10.0066
Esto	-10.007
▁trans	-10.007
▁wash	-10.0082
cía	-10.0086
▁leg	-10.0089
▁mensaje	-10.011
▁escribió	-10.011
▁film	-10.011
▁chess	-10.011
▁Jack	-10.0111
▁estudiando	-10.0116
▁verde	-10.0118
▁walked	-10.0127
▁admit	-10.0132
▁Dice	-10.0133
▁orden	-10.0142
▁land	-10.0146
▁rules	-10.0148
▁bath	-10.015
▁encuentra	-10.0157
▁recuerdo	-10.0157
▁Algeria	-10.0157
▁pensando	-10.0157
▁piedra	-10.0157
▁choice	-10.0158
▁justo	-10.0161
▁line	-10.0161
▁Necesita	-10.0164
illo	-10.0167
▁Nada	-10.0174
▁cenar	-10.0176
▁caro	-10.018
▁evitar	-10.018
ju	-10.0183
▁caminar	-10.0184
by	-10.0185
▁Casi	-10.019
,"	-10.0194
▁correo	-10.0195
▁church	-10.0205
▁green	-10.0205
▁peace	-10.0205
▁girls	-10.0228
▁chino	-10.0232
▁escrito	-10.0239
▁broken	-10.024
bil	-10.0252
▁abuela	-10.0252
▁Gra	-10.0266
aré	-10.0268
.»	-10.0283
▁silla	-10.0284
uro	-10.0296
▁clases	-10.0297
▁ajedrez	-10.03
▁ruin	-10.0301
▁mantener	-10.0306
ías	-10.0316
▁difference	-10.0348
▁famoso	-10.0348
▁dijiste	-10.0348
▁shop	-10.0349
time	-10.0358
▁paz	-10.0359
▁carro	-10.036
▁sangre	-10.036
▁corre	-10.0364
hu	-10.0366
▁taken	-10.0385
▁evening	-10.039
▁Canadian	-10.0396
▁cuchillo	-10.0396
▁iglesia	-10.0396
▁medicine	-10.0396
▁either	-10.0396
▁stone	-10.0398
gui	-10.0399
▁paso	-10.0403
▁luna	-10.0408
▁weight	-10.0415
▁ocho	-10.0416
▁llena	-10.0416
▁guy	-10.0423
ating	-10.0429
▁mentira	-10.044
▁9	-10.0442
▁canadiense	-10.0445
▁dulce	-10.0445
▁dirección	-10.0445
▁boyfriend	-10.0445
▁juega	-10.0446
▁comió	-10.045
▁camp	-10.0453
▁hable	-10.0489
▁entiende	-10.0494
▁paciente	-10.0494
▁belong	-10.0494
▁type	-10.0494
▁bosque	-10.0494
▁telephone	-10.0494
▁montón	-10.0495
rías	-10.0503
▁traje	-10.0503
▁guitarra	-10.0505
▁vos	-10.0512
▁step	-10.0513
▁Thanks	-10.0513
▁frases	-10.0516
Alguna	-10.0517
▁bebe	-10.0522
▁interesa	-10.0524
▁esperaba	-10.0531
▁Jo	-10.0533
▁considera	-10.0539
▁exactamente	-10.0543
▁thousand	-10.0543
▁worse	-10.0544
▁suele	-10.0554
▁Bob	-10.0554
ales	-10.0559
▁queja	-10.0572
▁És	-10.0581
▁ring	-10.059
▁Europa	-10.0592
▁fruta	-10.0592
ana	-10.0601
▁cab	-10.0604
▁translate	-10.0614
rk	-10.0631
▁planta	-10.0639
▁Skura	-10.0642
▁tierra	-10.0642
▁Good	-10.0642
▁government	-10.0642
▁jamás	-10.0642
▁encontrado	-10.0644
▁dientes	-10.0644
▁necessary	-10.0645
▁Pu	-10.0652
▁necesitas	-10.0658
▁Internet	-10.0691
▁luego	-10.0691
▁London	-10.0692
▁vacation	-10.0693
▁pieza	-10.0695
▁movies	-10.0698
▁Haz	-10.0706
▁Man	-10.0721
▁hará	-10.0722
dio	-10.0738
▁Londres	-10.0741
▁twenty	-10.0741
▁umbrella	-10.0741
▁mouth	-10.0741
▁molesta	-10.0742
▁desea	-10.075
▁hacen	-10.0752
▁acostumbrado	-10.0752
▁fan	-10.0752
▁marido	-10.0754
iva	-10.0764
▁smile	-10.0764
▁serious	-10.0785
▁viven	-10.0788
▁abierta	-10.0792
▁pudiera	-10.0792
▁jefe	-10.0792
▁leaving	-10.0792
▁amiga	-10.0792
▁gradu	-10.0792
▁warm	-10.0796
▁Ra	-10.0822
▁7	-10.0826
rin	-10.0833
ían	-10.0833
▁success	-10.0841
▁danger	-10.0842
▁llamó	-10.0842
▁lawyer	-10.0842
▁insult	-10.0843
▁rompió	-10.0843
▁resolver	-10.0845
▁earth	-10.0846
▁z	-10.0849
▁Prefier	-10.0851
use	-10.0863
▁desk	-10.0869
▁Oh	-10.0875
ex	-10.089
ccording	-10.0893
▁segundo	-10.0893
▁history	-10.0902
▁escucha	-10.092
▁visited	-10.0925
▁raining	-10.0927
eron	-10.0941
▁bonita	-10.0944
▁divertido	-10.0944
▁foot	-10.0945
▁decidió	-10.0945
▁pelea	-10.0955
▁estas	-10.0956
▁abandoned	-10.0966
▁dejes	-10.0968
▁cats	-10.0993
▁principio	-10.0995
▁message	-10.0995
▁esperanza	-10.0996
▁Dame	-10.1008
▁visita	-10.1011
pl	-10.1015
▁nine	-10.1018
▁intentar	-10.1025
▁Yes	-10.1038
▁llegue	-10.1047
▁sweet	-10.1047
▁traffic	-10.1047
▁Quizá	-10.1047
▁across	-10.1047
▁couple	-10.1047
▁suffer	-10.1047
▁paraguas	-10.1047
▁OK	-10.1047
▁comido	-10.1055
▁deseo	-10.1069
▁obra	-10.1074
▁pared	-10.1078
▁sentado	-10.108
▁prueba	-10.1098
▁afuera	-10.1099
▁18	-10.1099
▁village	-10.1104
▁kid	-10.1115
▁tele	-10.1116
▁Tal	-10.1119
cord	-10.112
▁bill	-10.1134
ice	-10.1143
▁share	-10.1148
▁próxima	-10.1151
▁system	-10.1151
▁power	-10.1151
Tiene	-10.1153
▁centro	-10.1157
▁claro	-10.1158
▁boss	-10.1177
▁jugador	-10.1178
▁bro	-10.1184
▁h	-10.1193
▁otras	-10.1199
onozco	-10.1199
▁ello	-10.12
▁neighbor	-10.1203
▁regret	-10.1203
Podrías	-10.1213
▁saben	-10.1219
arro	-10.122
▁waited	-10.1221
▁island	-10.1235
▁Pienso	-10.1256
▁knife	-10.1256
▁silencio	-10.1256
▁bailar	-10.1256
▁abandon	-10.1264
▁países	-10.1276
▁president	-10.1283
way	-10.1285
▁Pre	-10.1294
▁enseñar	-10.1304
L	-10.1305
▁scar	-10.1307
▁Keep	-10.1308
▁cancel	-10.1317
▁vende	-10.1324
▁deal	-10.1329
R	-10.1334
▁levanta	-10.135
ary	-10.1352
▁llevaba	-10.1352
▁everybody	-10.1362
▁viento	-10.1362
▁comenzó	-10.1362
▁attend	-10.1363
▁deporte	-10.1363
▁Viv	-10.1364
▁olvidar	-10.1367
Puede	-10.137
▁walking	-10.1371
▁roja	-10.1372
▁flu	-10.1377
▁ordenador	-10.1387
▁listening	-10.1403
ef	-10.1406
▁público	-10.1415
▁dado	-10.1416
▁Déjame	-10.1418
▁responder	-10.1426
bal	-10.143
▁pescado	-10.1435
▁noticias	-10.1452
▁singing	-10.1455
▁seeing	-10.1455
▁im	-10.1463
▁suit	-10.1467
▁speech	-10.1469
▁sistema	-10.1469
▁soccer	-10.1469
▁invited	-10.1482
▁Try	-10.1488
▁fly	-10.1508
▁respond	-10.151
▁hide	-10.1511
▁corta	-10.1514
▁aconsej	-10.1523
▁shut	-10.1523
▁wood	-10.1524
▁charge	-10.1524
▁busca	-10.1527
▁paga	-10.1527
▁slowly	-10.1529
▁save	-10.1543
▁depend	-10.1551
▁gun	-10.1556
▁Am	-10.1564
▁bottle	-10.1577
▁address	-10.1577
▁video	-10.1577
▁helado	-10.158
▁piso	-10.1585
▁India	-10.1589
▁cream	-10.1597
▁tema	-10.1602
▁Nueva	-10.1632
▁máquina	-10.1632
▁succeed	-10.1632
▁ability	-10.1632
▁smart	-10.1632
▁fuerza	-10.1632
▁concert	-10.1633
▁acá	-10.1635
▁weekend	-10.1637
arlo	-10.164
▁suficientemente	-10.1642
▁rent	-10.1647
▁moon	-10.1648
▁tendrá	-10.1652
▁alma	-10.1653
▁record	-10.1654
▁llegado	-10.1658
ció	-10.1659
▁offer	-10.167
▁mente	-10.1674
▁younger	-10.1674
▁ante	-10.168
▁tend	-10.1685
▁experiment	-10.1687
▁pensaba	-10.1687
▁hurry	-10.1688
▁detrás	-10.1689
▁suena	-10.1694
▁list	-10.1701
▁Maria	-10.1702
▁sh	-10.1702
▁carry	-10.171
▁Alguna	-10.1716
▁Since	-10.1723
▁azúcar	-10.1742
▁estúpido	-10.1742
▁fault	-10.1742
▁metro	-10.1762
▁weren	-10.1765
▁expected	-10.1771
▁atrás	-10.1772
▁cause	-10.1774
cle	-10.1774
▁domingo	-10.1777
▁complain	-10.1777
▁minute	-10.1777
▁planeta	-10.1778
▁tuve	-10.178
▁recordar	-10.1784
▁Germany	-10.1786
▁humanos	-10.1793
▁Alemania	-10.1798
▁Nuestra	-10.1798
▁blanca	-10.1798
▁esfuerzo	-10.1798
▁proyecto	-10.1798
▁discuss	-10.1798
▁entró	-10.18
ear	-10.18
▁baja	-10.1803
uch	-10.1808
bb	-10.1809
ged	-10.181
leg	-10.1812
▁driver	-10.1814
▁hago	-10.1815
▁decirle	-10.1827
▁spi	-10.183
▁trav	-10.183
▁explicar	-10.1836
af	-10.1841
▁grupo	-10.1854
▁libertad	-10.1854
▁limit	-10.1854
▁guess	-10.1855
▁grandfather	-10.1856
▁mirando	-10.1858
▁concierto	-10.1858
▁marry	-10.1862
▁failed	-10.1867
▁vale	-10.188
▁correr	-10.1881
▁dura	-10.1892
▁continue	-10.191
▁heavy	-10.191
▁hiciera	-10.191
▁ocurrió	-10.191
▁política	-10.191
▁principal	-10.191
▁television	-10.191
▁pienso	-10.191
▁hablo	-10.191
ep	-10.1911
▁due	-10.1912
▁vend	-10.1913
▁Quería	-10.1914
▁celebra	-10.1916
▁ustedes	-10.194
▁diferente	-10.1951
▁easily	-10.1966
▁twice	-10.1966
▁conocido	-10.1966
▁countries	-10.1967
▁protect	-10.1972
▁venido	-10.1972
▁match	-10.1973
▁term	-10.1978
▁isla	-10.1978
▁sw	-10.1981
▁received	-10.1981
cciones	-10.1988
▁reglas	-10.1991
▁cross	-10.2
H	-10.2012
▁mejores	-10.2015
▁gustaba	-10.2016
▁worried	-10.2023
▁Earth	-10.2023
▁Sometimes	-10.2023
▁abr	-10.2025
▁valor	-10.2026
puesto	-10.2028
▁ignor	-10.2029
▁rock	-10.2035
▁lucky	-10.2039
▁buenos	-10.2065
illas	-10.2066
▁trees	-10.2072
▁aeropuerto	-10.208
▁estuviera	-10.208
▁similar	-10.208
▁vuelva	-10.208
▁veinte	-10.208
▁totalmente	-10.208
▁Per	-10.2081
▁daño	-10.2081
▁Hu	-10.2081
▁100	-10.2083
▁fotos	-10.2085
▁llevó	-10.2089
▁enamorado	-10.209
igo	-10.2094
▁debo	-10.21
▁sounds	-10.2104
▁lago	-10.2109
▁plays	-10.213
cado	-10.2136
▁Argelia	-10.2138
▁maestro	-10.2138
▁lying	-10.2139
▁space	-10.2144
▁loud	-10.2154
▁Cor	-10.2155
fil	-10.2171
▁dan	-10.2171
▁given	-10.2178
▁missed	-10.218
▁col	-10.2189
▁baseball	-10.2195
▁botella	-10.2196
▁hermoso	-10.2198
▁beat	-10.2198
arte	-10.2206
▁sugar	-10.2214
▁single	-10.2214
▁permit	-10.2233
▁toca	-10.2234
▁clima	-10.2237
cted	-10.2239
▁Ne	-10.2252
▁página	-10.2254
▁cruel	-10.2254
▁vieja	-10.2254
▁encima	-10.2254
▁material	-10.2256
▁state	-10.2257
▁Br	-10.226
▁rosa	-10.226
▁rid	-10.2261
▁sentir	-10.2266
▁favorita	-10.2266
ara	-10.228
▁correcta	-10.2283
▁treat	-10.2289
icia	-10.2291
▁pul	-10.2296
val	-10.2299
▁pájaro	-10.2307
▁capacidad	-10.2312
▁gobierno	-10.2312
▁nobody	-10.2312
▁themselves	-10.2312
▁murder	-10.2312
▁driving	-10.2312
lie	-10.2313
▁ciencia	-10.2316
▁pedí	-10.2317
▁Aunque	-10.2328
▁coat	-10.2337
▁haré	-10.2337
▁Here	-10.2338
▁consist	-10.2342
▁cual	-10.2359
▁inform	-10.2365
▁termina	-10.2369
▁ejemplo	-10.2371
▁airport	-10.2371
▁shopping	-10.2371
▁traducir	-10.2371
▁teeth	-10.2371
▁leído	-10.2371
▁cuál	-10.2374
▁fair	-10.238
ug	-10.2391
▁cambia	-10.2392
▁Así	-10.2393
▁tonto	-10.2394
▁Fa	-10.2395
▁contento	-10.2403
▁birds	-10.2404
▁confiar	-10.2414
▁miró	-10.2423
▁piensas	-10.2425
▁investig	-10.2429
▁special	-10.243
▁terminó	-10.243
▁orange	-10.243
▁gusto	-10.2431
▁divid	-10.2432
▁escritorio	-10.2432
▁join	-10.2434
▁boys	-10.2434
▁Compré	-10.2436
▁humor	-10.2442
▁vayas	-10.245
▁matemáticas	-10.245
com	-10.2454
elo	-10.2455
pped	-10.2462
▁correcto	-10.2475
▁meaning	-10.2482
we	-10.2486
▁figure	-10.249
▁storm	-10.249
▁empresa	-10.249
▁beginning	-10.249
▁anciano	-10.249
bed	-10.2495
▁llamada	-10.2506
pareció	-10.2507
▁Mira	-10.2509
▁lava	-10.2513
▁planet	-10.2514
▁grave	-10.2528
▁estaría	-10.2541
▁naranja	-10.2549
▁support	-10.2549
▁author	-10.2549
▁wake	-10.2551
▁quiera	-10.2566
▁mud	-10.2567
▁menor	-10.2569
▁manzanas	-10.2572
▁lake	-10.2594
▁echar	-10.2597
▁almuerzo	-10.261
▁béisbol	-10.261
▁cloud	-10.261
▁effort	-10.261
▁studied	-10.261
▁útil	-10.261
▁repente	-10.261
▁papá	-10.261
▁rápidamente	-10.2611
▁organiz	-10.2621
▁cla	-10.2627
▁comprado	-10.2657
▁flor	-10.2657
▁empieza	-10.267
▁espalda	-10.267
▁rumor	-10.267
▁project	-10.267
▁entire	-10.267
▁avoid	-10.2671
▁group	-10.2671
▁inclus	-10.2672
tric	-10.2673
▁plu	-10.2678
▁date	-10.2687
▁tie	-10.2704
▁deep	-10.2721
▁hermanos	-10.2726
▁v	-10.2729
▁digo	-10.2731
▁escribe	-10.2735
▁empty	-10.2736
▁pasando	-10.275
▁War	-10.2752
varios	-10.2773
▁golpe	-10.2777
▁mía	-10.2788
ular	-10.279
▁nueve	-10.2793
▁deserve	-10.2793
▁orgulloso	-10.2793
▁actually	-10.2801
▁Most	-10.2802
▁Italia	-10.2803
▁hacía	-10.2806
▁owe	-10.2811
▁existe	-10.2813
▁dejado	-10.2821
▁diga	-10.2822
▁cola	-10.2823
▁fit	-10.2833
rap	-10.2837
▁seas	-10.2841
▁compre	-10.2848
▁bra	-10.2852
▁particip	-10.2854
%	-10.2854
▁extraña	-10.2854
▁diciendo	-10.2854
▁shot	-10.2855
▁advised	-10.2861
▁rule	-10.2868
▁goal	-10.2868
▁crime	-10.2879
▁dicen	-10.288
▁prove	-10.2896
▁obliga	-10.2904
▁1	-10.2915
ize	-10.2915
▁tormenta	-10.2917
▁condition	-10.2917
▁debajo	-10.2917
▁abrigo	-10.2917
▁aceptar	-10.292
▁tuyo	-10.2921
▁ja	-10.2922
▁amar	-10.2931
▁lenguas	-10.2933
dores	-10.2937
▁tanta	-10.2943
ático	-10.2944
▁local	-10.295
?»	-10.2958
▁speaker	-10.2963
▁ref	-10.2965
▁cell	-10.2973
▁forest	-10.2975
▁América	-10.2979
▁Inglaterra	-10.2979
▁borrow	-10.2979
▁grandmother	-10.2979
▁inmediatamente	-10.2979
▁forgive	-10.2979
▁funny	-10.2979
▁example	-10.298
▁nativo	-10.2981
▁adopt	-10.2999
low	-10.3001
ite	-10.3006
▁Podría	-10.3014
▁resto	-10.3016
Tú	-10.3019
▁árboles	-10.302
▁necesitaba	-10.3034
▁estés	-10.3038
▁blind	-10.3042
▁desayuno	-10.3042
▁translation	-10.3042
▁Anoche	-10.3042
rge	-10.3045
▁gold	-10.3047
ábamos	-10.3048
▁Russian	-10.3066
▁soup	-10.3069
▁H	-10.3072
▁reg	-10.3073
▁original	-10.3082
▁buenas	-10.3084
▁modo	-10.3099
▁shower	-10.31
▁photo	-10.3104
▁respecto	-10.3105
▁borracho	-10.3105
▁felices	-10.3105
▁político	-10.3105
▁view	-10.3105
▁enferma	-10.3105
Eso	-10.3111
▁Italy	-10.3113
▁dijeron	-10.3114
▁humano	-10.3122
▁temo	-10.3138
▁noticia	-10.3146
▁irse	-10.3153
nia	-10.3159
ched	-10.316
▁felicidad	-10.3169
▁England	-10.3169
▁arroz	-10.3169
▁Sr	-10.317
▁aprendiendo	-10.317
▁among	-10.3171
▁pájaros	-10.3175
adora	-10.3184
▁fo	-10.3186
▁diferentes	-10.3187
▁base	-10.3194
▁Was	-10.3196
ized	-10.3197
▁queremos	-10.3209
▁sex	-10.321
▁leaves	-10.3214
▁heat	-10.3224
▁drank	-10.3233
▁jóvenes	-10.3233
▁miembro	-10.3233
▁hicieron	-10.3233
▁utiliza	-10.3233
▁bonito	-10.3233
▁yellow	-10.3233
▁asiento	-10.3233
Si	-10.3236
▁sentía	-10.3238
▁Paul	-10.3241
▁Juan	-10.3251
▁diver	-10.3255
via	-10.3256
▁sopa	-10.3256
Di	-10.3263
▁Mike	-10.3263
▁surprise	-10.327
▁bother	-10.3283
▁cartas	-10.3287
▁horrible	-10.3298
▁subject	-10.3298
▁invitado	-10.3298
▁enemy	-10.3298
▁happens	-10.3298
ándose	-10.33
▁intentando	-10.3301
▁vote	-10.3304
▁verdadero	-10.3308
▁moved	-10.3311
▁Estuv	-10.332
▁painting	-10.3322
if	-10.3324
▁spoken	-10.3361
▁Smith	-10.3362
▁argument	-10.3362
,000	-10.3363
▁ganó	-10.3363
▁taught	-10.3363
▁irme	-10.3365
▁wonderful	-10.3366
▁viendo	-10.3368
▁Debo	-10.3382
▁Espera	-10.3391
▁preocupado	-10.3403
▁qui	-10.3422
bel	-10.3423
▁corriendo	-10.3428
▁slept	-10.3428
▁durmiendo	-10.3428
▁escalera	-10.3428
▁universe	-10.3428
▁member	-10.3428
▁Never	-10.3431
▁product	-10.3433
▁promet	-10.3434
▁app	-10.3435
and	-10.3438
▁mor	-10.3439
▁wi	-10.344
▁Car	-10.3442
▁paint	-10.3447
▁Dur	-10.3448
▁chicos	-10.3452
▁mirar	-10.3458
▁clock	-10.3468
Para	-10.3469
▁sentó	-10.3475
▁apples	-10.3487
▁cita	-10.349
▁feed	-10.3491
▁cien	-10.3493
▁bridge	-10.3494
▁position	-10.3494
▁universo	-10.3494
▁pencil	-10.3494
▁wo	-10.3495
▁puente	-10.3499
▁supposed	-10.3504
▁sight	-10.3506
Ve	-10.3512
▁anti	-10.3527
▁llaves	-10.3531
board	-10.3533
wer	-10.3535
▁cocinar	-10.3543
▁cri	-10.3543
▁Che	-10.3544
▁apologize	-10.356
▁college	-10.356
▁intentó	-10.356
▁disculpa	-10.356
▁cheap	-10.356
▁built	-10.356
▁engaña	-10.356
▁abrió	-10.3562
▁broma	-10.3565
rito	-10.3576
▁oro	-10.358
aban	-10.3592
▁poem	-10.3593
unque	-10.3608
▁buscar	-10.3612
lá	-10.3614
▁Osaka	-10.3626
▁espacio	-10.3627
▁held	-10.3628
▁comenzar	-10.3631
Podría	-10.3643
▁pictures	-10.3645
▁oración	-10.3651
▁keys	-10.3663
▁burn	-10.3671
izado	-10.3675
ology	-10.3694
▁Yesterday	-10.3694
▁bolsa	-10.3694
▁character	-10.3694
▁Aquel	-10.3694
Do	-10.3695
▁Ann	-10.3697
viv	-10.3699
▁amo	-10.371
▁mostrar	-10.3711
▁calm	-10.372
▁forward	-10.372
izo	-10.3738
tres	-10.3741
▁acu	-10.3751
▁nuestras	-10.3753
▁computadora	-10.3761
▁Brasil	-10.3761
▁cheese	-10.3761
▁línea	-10.3761
▁risk	-10.3761
▁civil	-10.3761
▁ahorr	-10.3761
▁agradable	-10.3762
▁immediately	-10.3763
▁defend	-10.3772
▁contó	-10.3775
▁odio	-10.3775
▁lack	-10.378
ward	-10.3788
▁lent	-10.3803
▁lavar	-10.3813
▁soul	-10.3818
▁vaca	-10.3828
▁dirty	-10.3829
▁«¿	-10.383
▁lucha	-10.3835
▁useful	-10.3838
▁ayudarte	-10.3843
▁tears	-10.3847
▁Dime	-10.3857
▁promised	-10.3872
▁mom	-10.3883
▁delante	-10.3889
▁hablan	-10.3893
▁medicina	-10.3898
▁gustó	-10.3898
▁field	-10.3898
▁produc	-10.3902
▁simplemente	-10.3909
▁rose	-10.3916
▁mata	-10.3929
▁poema	-10.3932
▁echa	-10.3935
ities	-10.3942
▁produce	-10.3954
▁Gu	-10.3958
▁Mon	-10.3958
▁holiday	-10.3967
▁estudio	-10.3967
▁tongue	-10.3968
▁apartment	-10.3969
▁rat	-10.3969
▁vuelve	-10.397
▁primavera	-10.3973
▁ski	-10.3985
▁olvides	-10.3992
▁abs	-10.4001
cal	-10.4013
▁junto	-10.4016
▁coma	-10.4017
▁Bi	-10.4018
▁cumpl	-10.4034
▁izquierda	-10.4036
▁objetivo	-10.4036
▁absurd	-10.4036
▁Tony	-10.4037
éramos	-10.4037
▁raro	-10.4037
▁depende	-10.4038
▁Supong	-10.4039
▁crowd	-10.4046
▁compré	-10.4046
▁apart	-10.4051
▁bella	-10.4062
▁programa	-10.4064
What	-10.408
ión	-10.4087
rón	-10.4097
▁practica	-10.4106
▁tuviera	-10.4106
▁brain	-10.4111
▁verlo	-10.4114
▁bike	-10.4114
amiento	-10.4116
▁pastel	-10.4116
▁hiding	-10.4122
tico	-10.4124
▁Hic	-10.4136
▁estrellas	-10.4141
▁remain	-10.4153
phe	-10.4158
▁minuto	-10.416
▁mat	-10.4161
▁Llev	-10.4162
▁Italian	-10.4165
▁estadounidense	-10.4176
▁pintura	-10.4176
▁sentimientos	-10.4176
▁honor	-10.4177
▁vivía	-10.4177
▁naturaleza	-10.4177
▁asusta	-10.4178
▁woke	-10.4178
▁pensó	-10.4178
▁Z	-10.4181
▁deberes	-10.4181
▁actor	-10.4185
▁meter	-10.4203
▁Love	-10.421
»	-10.4226
▁dad	-10.424
▁Sp	-10.4241
▁self	-10.4244
▁artículo	-10.4247
▁contribu	-10.4247
▁fascina	-10.4247
▁ladrón	-10.4248
▁throw	-10.4248
▁hielo	-10.4249
▁rice	-10.425
▁habló	-10.425
▁casó	-10.4252
▁quedarme	-10.4269
▁using	-10.4282
▁compra	-10.4285
▁program	-10.429
▁Facebook	-10.4319
▁recuerda	-10.4319
▁somebody	-10.4319
▁prisa	-10.4319
▁muchacho	-10.4322
gged	-10.4331
▁allowed	-10.4342
▁limpia	-10.4347
▁queso	-10.4351
ub	-10.4359
éis	-10.4366
▁feelings	-10.4368
▁bru	-10.4374
▁canta	-10.4388
▁Greek	-10.4391
▁nervous	-10.4391
▁purpose	-10.4391
▁stood	-10.4391
▁tampoco	-10.4391
▁criminal	-10.4391
▁choose	-10.4391
▁entrada	-10.4392
▁soldier	-10.4392
▁enorme	-10.4393
▁lead	-10.4395
▁confi	-10.4396
▁doce	-10.4397
mbre	-10.44
▁partir	-10.441
▁Latin	-10.4413
▁cent	-10.4421
▁familiar	-10.4431
▁cub	-10.4438
▁appear	-10.4439
▁Dile	-10.4449
ense	-10.445
▁fishing	-10.4452
izar	-10.4459
▁limpiar	-10.446
▁sacar	-10.4461
▁Children	-10.4463
▁science	-10.4463
▁Sabía	-10.4463
▁belleza	-10.4463
▁cerrar	-10.4463
▁memoria	-10.4463
▁gafas	-10.4463
▁fool	-10.4464
▁derecha	-10.4464
▁intend	-10.4466
▁chicas	-10.4468
▁covered	-10.4479
▁sentar	-10.449
▁legs	-10.4499
▁kissed	-10.4508
▁returned	-10.4511
▁flower	-10.4536
▁bathroom	-10.4536
▁million	-10.4537
▁expert	-10.4538
▁search	-10.4542
▁llamado	-10.455
▁apenas	-10.4556
▁perfecto	-10.4564
▁quedarse	-10.4566
▁genera	-10.4572
▁roto	-10.458
ship	-10.4603
▁Brazil	-10.4609
▁compañero	-10.461
▁middle	-10.461
▁olvidó	-10.461
▁servicio	-10.461
▁ruso	-10.461
▁carrera	-10.461
▁absolutely	-10.4612
▁mitad	-10.4613
▁producto	-10.4613
▁decide	-10.4625
▁primo	-10.4626
▁quedé	-10.4626
old	-10.4633
▁contact	-10.4635
▁page	-10.4638
▁wise	-10.4639
Esta	-10.4642
▁metal	-10.4643
F	-10.4656
▁singer	-10.4659
▁prison	-10.4659
▁arrest	-10.466
▁texto	-10.4663
▁sueños	-10.4666
▁George	-10.4684
▁aburrido	-10.4684
▁pronuncia	-10.4684
▁señal	-10.4684
▁recognize	-10.4684
▁equal	-10.4684
▁tarta	-10.4684
▁computador	-10.4684
▁trató	-10.4685
▁ganado	-10.4685
▁cantante	-10.469
▁reír	-10.4693
▁allow	-10.4696
▁Dima	-10.4698
▁demand	-10.47
▁Lleva	-10.47
▁oso	-10.4707
W	-10.4708
▁viste	-10.4711
▁Kate	-10.4718
▁stolen	-10.4723
▁gal	-10.4723
▁separa	-10.4733
▁cooking	-10.4735
curr	-10.4743
▁idiota	-10.4751
gué	-10.4751
▁lies	-10.4755
▁oil	-10.4758
▁artificial	-10.4758
▁ayudó	-10.4758
▁drug	-10.4759
▁merece	-10.4766
▁pr	-10.4769
▁cambiado	-10.4774
ker	-10.4775
ked	-10.4777
▁Ga	-10.478
▁escape	-10.4807
▁skin	-10.4807
▁attack	-10.481
▁verme	-10.4815
▁ejercicio	-10.4834
▁confund	-10.4834
▁teoría	-10.4835
▁debido	-10.4835
▁somewhere	-10.4836
▁director	-10.4839
▁actual	-10.484
gua	-10.484
▁pies	-10.4844
▁fur	-10.4868
▁tengas	-10.4876
▁podrá	-10.4882
G	-10.4883
▁reach	-10.4903
▁fri	-10.4908
▁Pri	-10.4908
▁vuelto	-10.4909
▁promesa	-10.4909
▁improve	-10.4909
▁ayude	-10.4909
▁regular	-10.491
▁rub	-10.4919
rry	-10.4927
▁aquella	-10.4931
▁pot	-10.4934
▁realized	-10.4938
▁domingos	-10.4938
▁existen	-10.4942
▁uso	-10.4943
▁talento	-10.496
tuvieron	-10.4961
▁happening	-10.4982
▁suggest	-10.4982
▁discurso	-10.4986
▁chicken	-10.4986
▁revista	-10.4986
▁impress	-10.4986
▁siglo	-10.4986
uti	-10.5003
▁carefully	-10.5006
▁rode	-10.5023
▁joy	-10.5026
▁interest	-10.5026
▁sabemos	-10.5033
ative	-10.5035
Sabe	-10.5035
▁realize	-10.5037
▁standing	-10.5043
▁happiness	-10.5063
▁neither	-10.5063
▁pertenece	-10.5063
▁museum	-10.5063
▁wedding	-10.5063
▁worst	-10.5063
▁embargo	-10.5063
▁museo	-10.5063
▁wound	-10.5064
▁claim	-10.5064
▁artist	-10.5071
▁calcula	-10.5072
Vas	-10.5075
▁Realmente	-10.5076
▁lady	-10.5081
▁compras	-10.5085
▁taller	-10.5088
▁Fro	-10.5094
▁caer	-10.5105
Que	-10.5108
pan	-10.5117
duci	-10.512
▁Ki	-10.5121
▁luck	-10.5127
▁acepta	-10.5135
▁sorprende	-10.514
▁seguridad	-10.514
▁sábado	-10.514
▁understood	-10.514
▁sonrisa	-10.514
▁admira	-10.514
▁Two	-10.514
▁above	-10.5142
▁educación	-10.5143
▁"¡	-10.5144
eme	-10.5163
▁educa	-10.518
▁laughed	-10.5181
▁cuidar	-10.5189
▁techo	-10.5192
▁toward	-10.5196
▁veía	-10.5207
▁forever	-10.5208
▁stars	-10.5213
Sí	-10.5214
▁lend	-10.5215
▁breath	-10.5215
▁accent	-10.5218
▁preocupes	-10.5218
▁cousin	-10.5218
▁abunda	-10.5218
▁platos	-10.5219
▁decidido	-10.5221
▁earn	-10.5224
▁coger	-10.5226
▁boat	-10.5226
▁aquellos	-10.5227
▁laughing	-10.5254
▁mapa	-10.5278
▁necesitamos	-10.5278
▁ojo	-10.5286
U	-10.5289
▁Saturday	-10.5297
▁Tomorrow	-10.5297
▁zoo	-10.5297
▁feet	-10.5298
▁rara	-10.5302
▁map	-10.5307
▁dedica	-10.5308
▁permite	-10.5321
▁sonido	-10.5328
▁except	-10.5328
reció	-10.5328
▁board	-10.5329
▁web	-10.5331
▁hang	-10.5336
▁ch	-10.5343
▁X	-10.5368
▁decirme	-10.5372
▁dig	-10.5372
▁encuentro	-10.5376
▁interpret	-10.5376
▁object	-10.5376
▁sociedad	-10.5376
▁ducha	-10.5377
▁spring	-10.5378
▁aware	-10.5378
▁boring	-10.5379
▁harm	-10.5384
▁lenguaje	-10.5387
▁ride	-10.5395
▁reached	-10.5401
▁talent	-10.5407
▁Of	-10.5439
▁comen	-10.5448
▁exercise	-10.5456
▁empleo	-10.5457
▁habrá	-10.5457
▁survive	-10.5457
▁Bueno	-10.5457
▁grita	-10.5457
▁respir	-10.5457
▁detail	-10.5457
▁huge	-10.5465
▁ocupada	-10.5466
dura	-10.5481
▁whatever	-10.5484
▁mató	-10.5486
▁lágrimas	-10.5497
▁lit	-10.5501
▁refer	-10.5504
vin	-10.5504
▁autor	-10.5506
▁arreglar	-10.551
▁entered	-10.5512
▁letra	-10.5517
▁mira	-10.5517
▁accustom	-10.5537
▁cerrada	-10.5537
▁sorprendido	-10.5537
▁earlier	-10.5537
▁fresh	-10.5537
▁relax	-10.5537
▁delicious	-10.5537
▁regard	-10.5537
▁absent	-10.5537
▁Llega	-10.5537
▁flat	-10.5539
▁Sorry	-10.5539
▁culpable	-10.5542
▁suddenly	-10.5543
▁gasta	-10.5554
▁jo	-10.5569
▁Ask	-10.5576
▁disfruta	-10.5577
▁pinta	-10.5581
▁explained	-10.5584
▁missing	-10.5588
put	-10.5602
▁Dr	-10.5602
▁document	-10.5605
▁dé	-10.5611
▁carretera	-10.5618
▁llueve	-10.5618
▁truck	-10.5618
▁beauty	-10.5618
▁grew	-10.5618
▁juice	-10.5619
▁15	-10.5619
▁pensé	-10.5621
▁Make	-10.5624
▁cast	-10.5626
▁mono	-10.5661
▁critic	-10.5662
▁cruz	-10.5663
▁enviar	-10.5667
▁Gi	-10.5669
▁ocupa	-10.5672
▁ended	-10.5673
▁fix	-10.5684
▁grab	-10.5689
▁planes	-10.5692
▁artista	-10.5699
▁accomplish	-10.57
▁magazine	-10.57
▁paciencia	-10.57
▁university	-10.57
▁acento	-10.57
▁satisfied	-10.57
▁extreme	-10.57
▁roof	-10.57
▁remind	-10.57
▁segura	-10.5701
▁Jackson	-10.5701
▁duerme	-10.5702
▁anywhere	-10.5703
▁Peter	-10.5705
▁model	-10.5705
▁asking	-10.5708
▁motor	-10.5709
Conoce	-10.5715
▁Their	-10.5727
▁creen	-10.5728
▁Ti	-10.5729
▁bomb	-10.5731
▁sports	-10.5732
▁cop	-10.5735
▁tuya	-10.5737
▁Wi	-10.574
▁negocios	-10.575
▁Qui	-10.5752
▁ayudarme	-10.5753
▁contacto	-10.5755
▁prestar	-10.5761
▁boda	-10.5762
▁herido	-10.5768
▁científico	-10.5783
▁llamo	-10.5783
▁straight	-10.5783
▁repair	-10.5783
▁solución	-10.5783
▁solution	-10.5783
▁judge	-10.5783
▁market	-10.5784
▁contain	-10.5784
▁named	-10.5784
▁assume	-10.5784
▁See	-10.5793
▁equi	-10.58
▁By	-10.5802
Va	-10.5805
▁pair	-10.5807
▁interesado	-10.5813
law	-10.582
▁negocio	-10.5833
▁healthy	-10.5837
▁Or	-10.5844
dera	-10.5852
▁enojado	-10.5866
▁Wait	-10.5866
▁prevent	-10.5866
▁itself	-10.5866
ología	-10.5867
▁wallet	-10.5867
▁Turn	-10.5867
▁gay	-10.5868
▁permitir	-10.5873
▁idiot	-10.5874
▁dry	-10.5876
▁oraciones	-10.5876
▁preparado	-10.5884
▁honesto	-10.5897
▁fría	-10.5908
The	-10.5928
▁low	-10.5931
▁imagin	-10.5931
light	-10.5934
▁Má	-10.5936
▁bare	-10.5941
▁abre	-10.5942
uesta	-10.5946
▁advantage	-10.595
▁convertir	-10.595
▁disease	-10.595
▁japonesa	-10.595
▁oscuro	-10.595
▁practice	-10.595
▁segunda	-10.595
▁nature	-10.595
▁marca	-10.5951
amb	-10.5957
▁conocía	-10.5963
▁season	-10.5964
▁main	-10.5969
▁abus	-10.5976
igi	-10.5983
▁observ	-10.5995
▁fondo	-10.5997
▁faster	-10.5999
gh	-10.6
▁reun	-10.6003
▁considered	-10.6013
▁carga	-10.6019
▁horn	-10.602
ily	-10.6029
▁Sol	-10.6032
▁reserva	-10.6032
▁Fuji	-10.6035
▁bolígrafo	-10.6035
▁guilty	-10.6035
▁tarjeta	-10.6035
▁tráfico	-10.6035
▁comentario	-10.6035
▁intención	-10.6035
▁comportamiento	-10.6035
▁corto	-10.6035
▁huele	-10.6036
▁Ningun	-10.6037
▁diario	-10.6042
▁indica	-10.6043
▁olvidado	-10.6047
▁discovered	-10.605
▁intenta	-10.6054
penas	-10.6063
▁text	-10.6065
dies	-10.6069
▁estrella	-10.6078
▁staying	-10.6095
rma	-10.6101
cious	-10.6105
▁direct	-10.6114
xcuse	-10.6117
▁slow	-10.6117
▁almorzar	-10.6121
▁fantasma	-10.6121
▁inocente	-10.6121
▁levantó	-10.6121
▁traducción	-10.6121
▁viviendo	-10.6121
▁Something	-10.6121
▁siguió	-10.6121
▁herida	-10.6121
▁nivel	-10.6124
▁Because	-10.6126
▁theory	-10.6127
▁escuchando	-10.6129
▁Time	-10.6129
▁jug	-10.6136
▁refused	-10.614
▁hablado	-10.6153
▁madera	-10.6162
▁caused	-10.6163
▁answered	-10.6175
▁olvida	-10.6186
▁preguntar	-10.619
▁Call	-10.6206
▁comunica	-10.6207
▁despierto	-10.6207
▁incendio	-10.6207
▁innocent	-10.6207
▁lápiz	-10.6207
▁soportar	-10.6207
▁vuelo	-10.6207
▁sharp	-10.6207
▁recently	-10.621
▁Alice	-10.6211
▁bored	-10.6214
▁desert	-10.6218
▁dishes	-10.622
▁miles	-10.6226
lent	-10.6247
▁stole	-10.6248
▁pescar	-10.6251
hrew	-10.6279
▁upon	-10.628
▁podr	-10.6281
▁imagine	-10.6285
▁cultura	-10.6287
▁collect	-10.629
▁stuff	-10.6294
▁Kyoto	-10.6294
▁ghost	-10.6294
▁propósito	-10.6294
▁satisfecho	-10.6294
▁Nancy	-10.6294
▁escribiendo	-10.6294
▁amistad	-10.6294
▁internet	-10.6294
▁pray	-10.6294
▁teatro	-10.6294
▁complica	-10.6294
▁concentr	-10.6294
▁Leave	-10.6294
▁planning	-10.6295
▁determin	-10.6295
▁vecinos	-10.6297
▁burl	-10.6304
▁hung	-10.6307
▁marcha	-10.6308
▁paseo	-10.631
▁iré	-10.6313
udo	-10.6314
▁within	-10.6314
▁pez	-10.6324
▁Ko	-10.6349
▁crimen	-10.6359
▁darle	-10.637
▁nation	-10.6372
▁americano	-10.6381
▁excelente	-10.6381
▁relación	-10.6382
▁opción	-10.6382
▁decirte	-10.6382
▁require	-10.6382
▁repeat	-10.6383
▁levantar	-10.6387
▁contest	-10.639
▁tratando	-10.6394
▁pill	-10.6396
dita	-10.6399
▁tía	-10.6405
Mi	-10.6413
▁200	-10.6423
▁smiled	-10.6429
llow	-10.6432
▁dama	-10.6443
▁poli	-10.6448
▁tratar	-10.6451
▁gl	-10.6451
col	-10.6457
▁stranger	-10.6459
adores	-10.6463
▁kilo	-10.6469
▁Friday	-10.647
▁corner	-10.647
▁enfadado	-10.647
▁enseñó	-10.647
▁italiano	-10.647
▁stomach	-10.647
▁easier	-10.647
▁Cuanto	-10.647
▁access	-10.647
▁develop	-10.647
▁premio	-10.647
▁respeta	-10.647
▁maleta	-10.647
▁lied	-10.6471
eza	-10.6475
▁policeman	-10.6475
▁pet	-10.6476
▁theater	-10.6476
▁pool	-10.6479
▁notice	-10.648
▁Sha	-10.6485
▁filled	-10.6486
▁probar	-10.6487
▁cow	-10.6492
▁prob	-10.6523
cap	-10.6523
▁pierna	-10.6528
▁casarse	-10.6534
▁fuma	-10.6547
▁insect	-10.6555
▁behavior	-10.6559
▁corbata	-10.6559
▁frecuencia	-10.6559
▁intelligent	-10.6559
▁oscuridad	-10.6559
▁ground	-10.6559
▁juguete	-10.6559
▁article	-10.6559
▁football	-10.6559
▁guapa	-10.6559
▁emociona	-10.6559
▁harto	-10.656
▁race	-10.6561
▁flight	-10.6562
▁crece	-10.6564
▁bigger	-10.6564
▁Read	-10.6569
▁Entonces	-10.6569
▁finalmente	-10.6577
▁torta	-10.6577
▁lesson	-10.6578
▁pica	-10.6579
▁alcanzar	-10.6589
▁education	-10.66
▁spa	-10.66
▁significado	-10.6603
entras	-10.6604
▁profesora	-10.6607
rno	-10.6609
▁Tan	-10.6616
▁pega	-10.662
▁parecen	-10.6628
▁volar	-10.6639
▁Vol	-10.6647
▁llegué	-10.6649
▁sorpresa	-10.6649
▁viernes	-10.6649
▁droga	-10.6649
▁pareja	-10.6649
▁steal	-10.665
▁annoy	-10.665
▁alegra	-10.665
▁abajo	-10.665
▁También	-10.6655
▁peces	-10.6661
▁hubo	-10.6662
▁issue	-10.6664
▁cabo	-10.6668
▁solar	-10.6679
▁noticed	-10.6679
▁piernas	-10.668
▁Any	-10.6681
▁watched	-10.6684
▁cliente	-10.6691
▁ocult	-10.6691
dero	-10.6692
▁observa	-10.6692
▁pelota	-10.6695
▁quedarte	-10.6698
▁Antes	-10.6712
▁diría	-10.6716
▁build	-10.672
▁presente	-10.6726
▁prepara	-10.6726
▁impresion	-10.674
▁increíble	-10.674
▁Greece	-10.674
▁conocimiento	-10.674
▁costumbre	-10.674
▁culture	-10.674
▁hábito	-10.674
▁mathematic	-10.674
▁thief	-10.674
▁Perdí	-10.674
▁cierta	-10.674
▁ahead	-10.674
▁millones	-10.674
▁basura	-10.674
Desearía	-10.674
▁antigua	-10.6741
▁cantidad	-10.6742
ib	-10.6744
▁rica	-10.6749
prendí	-10.676
ought	-10.6762
▁alumnos	-10.6763
▁button	-10.6765
▁imaginar	-10.6767
▁drop	-10.6773
▁aunt	-10.6787
Queré	-10.6805
▁debemos	-10.6816
▁Hola	-10.682
▁cancer	-10.6826
▁absoluto	-10.6832
▁century	-10.6832
▁muñeca	-10.6832
▁religion	-10.6832
▁responsable	-10.6832
▁bright	-10.6832
▁evil	-10.6832
▁lloviendo	-10.6832
▁concern	-10.6833
▁negó	-10.6834
▁llorando	-10.6837
▁Mom	-10.6849
▁calling	-10.6851
▁gain	-10.6855
▁Será	-10.6859
▁nervioso	-10.6865
▁traer	-10.689
▁size	-10.689
▁llora	-10.6905
▁decid	-10.6905
▁hid	-10.6914
▁haberlo	-10.692
▁appreciate	-10.6925
▁física	-10.6925
▁horizon	-10.6925
▁particular	-10.6925
▁posibilidad	-10.6925
▁Africa	-10.6925
▁Portugal	-10.6925
▁empleados	-10.6925
▁knowledge	-10.6925
▁matrimonio	-10.6925
▁necesidad	-10.6925
▁picnic	-10.6925
▁society	-10.6925
▁sorprendió	-10.6925
▁Grecia	-10.6925
▁quisiera	-10.6925
▁supiera	-10.6925
▁barato	-10.6925
▁trampa	-10.6925
▁convencer	-10.6926
▁medida	-10.6927
▁oferta	-10.6927
▁alarm	-10.6927
▁master	-10.6936
▁arregl	-10.6956
▁weak	-10.6956
▁comí	-10.6962
▁quitó	-10.6964
▁dificultad	-10.7018
▁distancia	-10.7018
▁explanation	-10.7018
▁pleasure	-10.7018
▁politician	-10.7018
▁temperatura	-10.7018
▁temperature	-10.7018
▁arriba	-10.7018
▁Hablo	-10.7018
▁destino	-10.7018
▁sirve	-10.7019
Jamás	-10.702
▁iron	-10.7038
chu	-10.7039
▁cash	-10.7044
miento	-10.7047
▁necesitan	-10.7054
▁pocas	-10.7059
▁painted	-10.706
▁camina	-10.7061
▁picked	-10.7067
▁translated	-10.707
▁logra	-10.707
▁accepted	-10.7077
▁moda	-10.7079
▁ciento	-10.7086
▁placer	-10.7087
▁Sería	-10.7088
▁dressed	-10.7096
▁complete	-10.7103
▁believed	-10.7111
▁piel	-10.7112
▁citizen	-10.7112
▁energía	-10.7112
▁stories	-10.7112
▁camión	-10.7112
▁riesgo	-10.7112
▁serpiente	-10.7112
▁Cualquier	-10.7112
▁distance	-10.7112
▁relaja	-10.7112
▁relationship	-10.7112
▁bedroom	-10.7113
▁ambos	-10.7114
▁silent	-10.712
▁neck	-10.7121
▁liar	-10.7121
▁sand	-10.7133
giving	-10.7137
▁querés	-10.7154
▁50	-10.7161
▁tomado	-10.7167
▁hojas	-10.7183
▁humana	-10.7184
▁cute	-10.7189
▁decía	-10.7189
▁entera	-10.7197
▁confianza	-10.7208
▁increase	-10.7208
▁japoneses	-10.7208
▁pocket	-10.7208
▁advance	-10.7208
▁despacio	-10.7208
▁antiguo	-10.7208
▁elefante	-10.7208
▁crisis	-10.7208
▁quiso	-10.721
▁tarda	-10.721
▁volverá	-10.721
▁cheat	-10.7211
▁employees	-10.7214
▁constant	-10.7218
▁Wo	-10.7223
vivió	-10.7224
▁cool	-10.7227
cional	-10.723
▁hablante	-10.724
▁band	-10.7241
▁brush	-10.7248
▁Canada	-10.7268
▁vegetables	-10.7274
though	-10.7281
▁sang	-10.7288
▁abandonar	-10.7296
▁Hub	-10.7299
▁usando	-10.73
▁express	-10.73
▁Madrid	-10.7304
▁earthquake	-10.7304
▁permiso	-10.7304
▁pérdida	-10.7304
▁abierto	-10.7304
▁Canadá	-10.7304
▁multitud	-10.7304
▁arruin	-10.7304
▁negra	-10.7304
▁Mamá	-10.7304
▁instead	-10.7304
▁funeral	-10.7304
▁linda	-10.7304
▁flag	-10.7305
▁respondió	-10.7307
▁verdaderamente	-10.7307
▁probablemente	-10.7308
▁deberían	-10.7308
So	-10.7309
Qu	-10.7314
▁center	-10.732
▁caza	-10.732
You	-10.7342
▁llegará	-10.7354
▁excepto	-10.7358
▁enjoyed	-10.7368
▁acompañ	-10.7371
Pero	-10.738
tory	-10.7383
▁acostumbra	-10.7394
▁fed	-10.74
▁knock	-10.7401
▁scream	-10.7401
▁Unfortunately	-10.7401
▁bolsillo	-10.7401
▁cáncer	-10.7401
▁griego	-10.7401
▁ourselves	-10.7401
▁prefiere	-10.7401
▁cuadro	-10.7401
▁uniform	-10.7401
▁Rima	-10.7401
▁robó	-10.7401
▁cuerda	-10.7401
▁fuck	-10.7401
▁suspect	-10.7401
▁esposo	-10.7401
▁muere	-10.7407
▁harder	-10.741
▁largest	-10.7414
▁starting	-10.7418
▁realiza	-10.7425
▁buying	-10.7431
▁Bring	-10.7435
▁push	-10.7445
▁entero	-10.745
▁sentí	-10.7458
▁Roman	-10.7459
▁introduce	-10.746
año	-10.747
▁agreed	-10.7473
▁llev	-10.7489
fla	-10.7494
▁vecino	-10.7495
▁agrada	-10.7497
▁World	-10.7499
▁cerebro	-10.7499
▁elegir	-10.7499
▁provide	-10.7499
▁exhaust	-10.7499
▁25	-10.7502
▁Solía	-10.7504
▁vacía	-10.7509
▁venta	-10.751
▁salvo	-10.7511
▁romp	-10.7511
▁White	-10.7512
phone	-10.7512
▁corte	-10.7518
▁barba	-10.7526
▁fácilmente	-10.7528
▁hecha	-10.753
▁saved	-10.7548
¿	-10.7559
itud	-10.7576
▁Tuv	-10.7586
▁plato	-10.7598
▁cuestión	-10.7598
▁estómago	-10.7598
▁terremoto	-10.7598
▁Brown	-10.7598
▁habilidad	-10.7598
▁mirror	-10.7598
▁materna	-10.7598
▁cabello	-10.7598
▁disgust	-10.7598
▁misterio	-10.7598
▁freedom	-10.7598
▁transport	-10.7598
▁ponga	-10.7599
▁defini	-10.76
▁conductor	-10.7601
▁informe	-10.7603
▁chiste	-10.761
▁math	-10.7616
▁12	-10.7617
ización	-10.7624
▁Ru	-10.7634
▁cried	-10.7634
▁vender	-10.7635
▁Oí	-10.7644
▁fail	-10.7681
▁qua	-10.7695
”	-10.7698
▁excellent	-10.7698
▁pregnant	-10.7698
▁absence	-10.7698
▁nariz	-10.7698
▁suitcase	-10.7698
▁Linda	-10.7698
▁haz	-10.7699
sintió	-10.7699
▁blow	-10.77
▁Mejor	-10.77
▁explicación	-10.7701
▁motivo	-10.7702
▁Mother	-10.7703
▁nurse	-10.7704
▁recibió	-10.7704
▁curso	-10.7707
▁bajar	-10.7709
▁seriously	-10.7717
▁mark	-10.773
▁presta	-10.7739
lina	-10.776
▁bomba	-10.7761
▁fea	-10.7763
▁irá	-10.7775
▁besar	-10.7776
▁amaba	-10.7778
▁conocí	-10.7784
ough	-10.7788
▁exact	-10.779
▁electric	-10.7795
▁Christ	-10.7798
▁incorrect	-10.7799
▁Probablemente	-10.7799
▁descanso	-10.7799
▁inmediato	-10.7799
▁movimiento	-10.7799
▁opportunity	-10.7799
▁welcome	-10.7799
▁snake	-10.7799
▁third	-10.7799
▁Papá	-10.7799
▁completo	-10.7799
▁headache	-10.7799
▁memory	-10.7799
▁aumenta	-10.7799
▁bandera	-10.78
▁aboli	-10.78
▁comfortable	-10.78
▁quince	-10.7801
▁describe	-10.7803
▁pilot	-10.7805
▁Quien	-10.7808
▁guste	-10.7809
▁reality	-10.7809
▁wide	-10.7817
▁Algo	-10.783
▁instant	-10.7841
▁supuesto	-10.7842
▁insist	-10.7842
▁poet	-10.7843
▁manten	-10.7859
▁probable	-10.7862
▁raise	-10.7874
Tu	-10.7877
▁chose	-10.7888
▁ordered	-10.7893
▁Sient	-10.7893
ncluso	-10.7898
▁consciente	-10.7901
▁fábrica	-10.7901
▁propuesta	-10.7901
▁Encontré	-10.7901
▁birth	-10.7901
▁Write	-10.7901
▁espejo	-10.7901
▁service	-10.7901
▁Stay	-10.7901
▁castillo	-10.7901
▁value	-10.7902
▁micro	-10.7903
▁liber	-10.7904
▁prestado	-10.7918
Yes	-10.7921
tional	-10.7921
▁castle	-10.7925
▁desire	-10.7926
▁flying	-10.794
▁N	-10.7963
▁salvar	-10.7969
▁hablaba	-10.7976
▁cargo	-10.7976
▁aprende	-10.798
ática	-10.7983
venció	-10.7989
▁preparar	-10.7997
Ma	-10.8001
▁Columbus	-10.8004
▁divorci	-10.8004
▁embarazada	-10.8004
▁fotografía	-10.8004
▁piscina	-10.8004
▁population	-10.8004
▁resfriado	-10.8004
▁vosotros	-10.8004
▁injured	-10.8004
▁vivido	-10.8004
▁gratis	-10.8004
▁fortuna	-10.8004
▁carried	-10.8004
▁skirt	-10.8004
▁consult	-10.8008
▁prize	-10.8008
▁Dad	-10.8011
▁gro	-10.8013
▁CD	-10.8014
▁Ja	-10.8016
opher	-10.8021
▁Recuerd	-10.8025
▁lindo	-10.8026
▁Ésta	-10.8028
▁escritor	-10.8029
▁path	-10.8033
▁vea	-10.8045
▁followed	-10.8057
▁separate	-10.8073
▁recibir	-10.8075
cita	-10.8077
posición	-10.8082
Usted	-10.8082
▁rang	-10.8083
Habla	-10.8084
▁climb	-10.8084
▁writer	-10.8094
▁listened	-10.8097
▁Portuguese	-10.8108
▁adelante	-10.8108
▁ashamed	-10.8108
▁courage	-10.8108
▁cárcel	-10.8108
▁instrument	-10.8108
▁Mexico	-10.8108
▁pensamiento	-10.8108
▁ugly	-10.8108
▁sofá	-10.8108
▁stick	-10.8108
▁supone	-10.8108
▁forgotten	-10.8109
▁Christian	-10.8109
▁obvious	-10.811
▁yenes	-10.811
lves	-10.8111
▁profundamente	-10.8111
▁toilet	-10.8111
▁tight	-10.8113
▁querría	-10.8116
▁documento	-10.8125
▁element	-10.8137
▁Rec	-10.8139
▁aplica	-10.8143
▁Asia	-10.8149
▁beso	-10.815
▁escala	-10.8168
▁escapar	-10.8171
J	-10.8187
ilidad	-10.819
Oh	-10.8195
▁decor	-10.82
▁brilla	-10.8207
▁Somebody	-10.8213
▁cambió	-10.8213
▁casualidad	-10.8213
▁galletas	-10.8213
▁inteligencia	-10.8213
▁jealous	-10.8213
▁población	-10.8213
▁professor	-10.8213
▁twelve	-10.8213
▁caballero	-10.8213
▁olvidé	-10.8213
▁Colón	-10.8213
▁despertar	-10.8213
▁conserva	-10.8213
▁request	-10.8213
▁awake	-10.8214
▁affect	-10.8214
▁Betty	-10.8214
▁Crist	-10.8214
▁mercado	-10.8214
▁bebida	-10.8214
▁pollo	-10.8214
▁violent	-10.8215
▁nacional	-10.8215
▁brown	-10.8215
▁perdí	-10.8216
Com	-10.8225
torio	-10.8227
▁disappointed	-10.8228
▁greatest	-10.8232
▁prepared	-10.8238
▁fingi	-10.8242
ella	-10.8246
▁mail	-10.8248
▁compro	-10.825
áis	-10.8251
▁connect	-10.8265
▁washing	-10.8266
azo	-10.829
▁convince	-10.8293
▁nave	-10.8294
▁enamora	-10.8301
▁desaparec	-10.8318
▁October	-10.832
▁apartamento	-10.832
▁ascensor	-10.832
▁divorce	-10.832
▁involved	-10.832
▁square	-10.832
▁supermercado	-10.832
▁prisión	-10.832
▁Pronto	-10.832
▁kick	-10.832
▁adapt	-10.832
▁araña	-10.8322
▁Father	-10.8323
▁prometió	-10.8323
▁friendship	-10.8323
▁cookies	-10.8324
▁comment	-10.8333
▁romper	-10.8333
legro	-10.8335
Yo	-10.8336
▁quise	-10.8337
▁cualquiera	-10.8338
▁suyo	-10.8338
▁cortar	-10.8341
ién	-10.8344
▁hole	-10.8358
▁shy	-10.8363
▁hunt	-10.8367
▁gi	-10.8378
▁fij	-10.8384
▁manejar	-10.8391
dónde	-10.8397
▁creía	-10.8398
▁jump	-10.841
▁averiguar	-10.8427
▁individual	-10.8427
▁interrupt	-10.8427
▁vegetarian	-10.8427
▁religión	-10.8427
▁conduce	-10.8427
▁pasaporte	-10.8427
▁superior	-10.8427
▁Intenta	-10.8427
▁cerrado	-10.8427
▁passport	-10.8427
▁scene	-10.8427
▁moneda	-10.8427
▁robado	-10.8427
▁period	-10.8427
▁remove	-10.8428
▁mood	-10.8428
▁locked	-10.8428
▁estábamos	-10.8429
▁aprendido	-10.843
mail	-10.8431
▁accused	-10.8436
▁mention	-10.8447
▁copia	-10.8449
▁Rome	-10.8453
▁egg	-10.8454
▁pala	-10.8467
▁teaching	-10.8476
▁cruzar	-10.8477
▁content	-10.848
▁oí	-10.8483
▁necesit	-10.849
▁gira	-10.8491
▁Day	-10.8494
ify	-10.85
▁musical	-10.8508
elect	-10.8528
▁billete	-10.8528
▁debía	-10.8533
▁México	-10.8536
▁cigarette	-10.8536
▁flauta	-10.8536
▁mosquito	-10.8536
▁pantalones	-10.8536
▁sandwich	-10.8536
▁supermarket	-10.8536
▁conciencia	-10.8536
▁apunt	-10.8537
▁failure	-10.8537
▁cerdo	-10.8538
▁Estudi	-10.8538
▁ratón	-10.8539
▁gordo	-10.8539
▁latín	-10.854
▁admitted	-10.8542
▁regresar	-10.8545
▁recoger	-10.8549
▁boil	-10.8549
▁cover	-10.8549
▁trajo	-10.8549
▁butter	-10.855
▁pensado	-10.8554
▁managed	-10.8556
▁colon	-10.8561
▁convinced	-10.8564
▁arrested	-10.8571
▁nearly	-10.8577
▁fighting	-10.8584
▁reina	-10.859
agra	-10.8596
▁Roma	-10.8597
▁rap	-10.8615
▁Should	-10.8646
▁Speak	-10.8646
▁acceso	-10.8646
▁cincuenta	-10.8646
▁energy	-10.8646
▁Show	-10.8646
▁inútil	-10.8646
▁sabio	-10.8646
▁plate	-10.8646
erhaps	-10.8647
▁14	-10.8647
▁roll	-10.8671
▁huevo	-10.868
▁fired	-10.8691
▁encantan	-10.8703
▁viva	-10.8723
▁err	-10.8723
▁jar	-10.8725
—	-10.8731
▁quedado	-10.8746
▁interrump	-10.8757
▁extranjera	-10.8757
▁jazz	-10.8757
▁otoño	-10.8757
▁responsible	-10.8757
▁studies	-10.8757
▁duty	-10.8757
▁mintiendo	-10.8757
▁spread	-10.8757
▁fresco	-10.8757
▁ninguno	-10.8757
▁absorb	-10.8757
▁botón	-10.8757
▁conejo	-10.8758
▁dropped	-10.8758
▁Islam	-10.8758
▁invitar	-10.8759
▁sexual	-10.8759
▁excuse	-10.8761
▁baña	-10.8762
▁rise	-10.8763
▁mentir	-10.8768
▁salido	-10.8778
▁mental	-10.878
▁anillo	-10.8785
▁bake	-10.8786
▁confirm	-10.8798
▁washed	-10.8816
Cuáles	-10.8837
Necesit	-10.8843
▁invite	-10.8844
▁prima	-10.8859
▁despedir	-10.8869
▁comienzo	-10.8869
▁consiguió	-10.8869
▁distinguir	-10.8869
▁dormitorio	-10.8869
▁jacket	-10.8869
▁marriage	-10.8869
▁profundo	-10.8869
▁poison	-10.8869
▁proteger	-10.8869
▁stuck	-10.8869
▁shock	-10.8869
▁dying	-10.887
▁depart	-10.887
▁elevator	-10.887
▁amount	-10.8871
▁fracaso	-10.8871
▁ciudadano	-10.8871
▁lazy	-10.8872
▁conversation	-10.8875
▁hogar	-10.8876
▁lastima	-10.8886
▁Creí	-10.8905
ige	-10.8916
▁grass	-10.8919
▁file	-10.8922
▁tranquil	-10.8925
▁brave	-10.8927
▁sobra	-10.8941
▁damage	-10.8946
▁comprender	-10.8958
▁canciones	-10.8963
▁lentes	-10.8969
▁attempt	-10.8983
▁efecto	-10.8983
▁hombro	-10.8983
▁objeto	-10.8983
▁patience	-10.8983
▁requiere	-10.8983
▁incident	-10.8983
▁zona	-10.8983
▁spirit	-10.8983
▁famosa	-10.8983
▁débil	-10.8984
Piensa	-10.8984
▁absolutamente	-10.8984
▁junta	-10.8984
▁weigh	-10.8985
▁mouse	-10.8986
▁dispuesto	-10.8987
▁round	-10.8987
Adónde	-10.8987
▁muchacha	-10.899
▁resist	-10.8993
▁mostró	-10.8995
▁pistola	-10.8996
He	-10.9001
▁raised	-10.9013
▁conven	-10.9027
▁following	-10.9033
▁legal	-10.9037
▁discutir	-10.9042
▁doble	-10.9064
▁forced	-10.9072
▁quick	-10.9093
uvimos	-10.9095
▁afford	-10.9098
▁elephant	-10.9098
▁facilidad	-10.9098
▁hobby	-10.9098
▁octubre	-10.9098
▁ciego	-10.9098
▁wealth	-10.9098
▁Ambos	-10.9098
▁rude	-10.9098
▁tercer	-10.9099
Ella	-10.9099
▁sonrió	-10.9099
▁suspend	-10.91
▁everywhere	-10.9101
▁conversación	-10.9101
▁decidir	-10.9103
▁–	-10.9103
▁pluma	-10.9106
cade	-10.9109
▁últimamente	-10.9122
▁tomando	-10.9124
▁flute	-10.9134
▁origin	-10.914
▁señora	-10.9147
▁diré	-10.915
▁atrev	-10.916
▁alimenta	-10.9176
▁dieta	-10.9188
▁salga	-10.9194
quiera	-10.9194
▁ciudades	-10.9196
gging	-10.9202
▁asegur	-10.921
Preferiría	-10.9214
▁aspecto	-10.9214
▁cuarenta	-10.9214
▁estúpida	-10.9214
▁fifteen	-10.9214
▁fifty	-10.9214
▁remedio	-10.9214
▁árabe	-10.9214
▁faith	-10.9214
▁alegría	-10.9214
▁intention	-10.9214
▁muestra	-10.9214
▁obey	-10.9214
▁sombra	-10.9214
▁degree	-10.9215
▁lift	-10.9215
▁towel	-10.9215
▁mentiroso	-10.9215
▁level	-10.9216
▁protest	-10.9218
▁gotten	-10.9218
▁seguido	-10.922
▁juzg	-10.922
ught	-10.9223
▁adult	-10.9228
▁manager	-10.9238
▁lion	-10.9243
▁created	-10.9245
▁banda	-10.9246
▁vimos	-10.9246
▁Dej	-10.9247
▁imagen	-10.9248
▁querer	-10.9262
▁hearing	-10.9269
Son	-10.9269
acti	-10.9295
▁bite	-10.93
▁prepare	-10.9305
▁sooner	-10.9312
▁wondered	-10.932
work	-10.933
▁Thomas	-10.9332
▁construir	-10.9332
▁disponible	-10.9332
▁mantequilla	-10.9332
▁medicamento	-10.9332
▁portugués	-10.9332
▁private	-10.9332
▁proposal	-10.9332
▁acabó	-10.9332
▁fiebre	-10.9332
▁violencia	-10.9332
▁false	-10.9332
▁podido	-10.9332
▁satisf	-10.9332
▁16	-10.9333
▁Korea	-10.9334
▁daré	-10.9335
▁email	-10.9336
▁cumplir	-10.9339
▁paró	-10.9339
▁cansada	-10.9346
▁piensan	-10.9356
▁mayores	-10.9357
▁tail	-10.9357
▁viaja	-10.9359
▁Once	-10.9364
mission	-10.9366
▁national	-10.9366
Teng	-10.9369
▁llevo	-10.9383
▁Pode	-10.9408
▁poeta	-10.9411
▁Whi	-10.9435
▁hill	-10.9445
▁available	-10.9451
▁comienza	-10.9451
▁convirtió	-10.9451
▁corrió	-10.9451
▁polvo	-10.9451
▁current	-10.9451
▁Kioto	-10.9451
▁concept	-10.9451
▁fortune	-10.9451
▁defect	-10.9451
▁esquina	-10.9451
▁speed	-10.9451
▁ausencia	-10.9451
▁provoca	-10.9451
émonos	-10.9452
▁calma	-10.9452
▁extend	-10.9454
▁puesta	-10.9455
▁descubrir	-10.9455
▁Shi	-10.9464
▁normalmente	-10.9467
▁Vivi	-10.9468
coming	-10.947
▁compraste	-10.9482
▁Amo	-10.9484
▁dieron	-10.9496
▁mandar	-10.9522
▁Russia	-10.9526
ético	-10.9541
▁ideal	-10.9543
▁refuse	-10.9545
▁bark	-10.9551
▁decepcion	-10.956
▁cometer	-10.9565
▁internacional	-10.9571
▁maravillosa	-10.9571
▁teclado	-10.9571
▁vacío	-10.9571
▁stairs	-10.9571
▁cuello	-10.9571
▁weapon	-10.9571
▁dumb	-10.9571
▁valiente	-10.9571
▁importancia	-10.9571
▁perform	-10.9571
▁politics	-10.9571
▁twin	-10.9571
▁aceite	-10.9572
▁oreja	-10.9572
▁keyboard	-10.9572
▁shout	-10.9573
▁naked	-10.9574
▁weird	-10.9575
▁caminando	-10.9578
▁capable	-10.958
▁fuiste	-10.9582
▁querido	-10.9582
▁Hello	-10.9586
▁verdadera	-10.9587
▁whenever	-10.9594
▁abandonado	-10.9594
▁mont	-10.9602
▁fixed	-10.9606
▁fuimos	-10.9611
▁condena	-10.9618
▁plants	-10.9628
▁chu	-10.9652
▁engine	-10.9676
▁Trabaja	-10.9676
▁strength	-10.9693
▁Polish	-10.9693
▁Three	-10.9693
▁demasiada	-10.9693
▁electrónico	-10.9693
▁intelligence	-10.9693
▁license	-10.9693
▁midnight	-10.9693
▁shoot	-10.9693
▁Water	-10.9693
▁ocean	-10.9693
▁falda	-10.9693
▁neighborhood	-10.9694
▁registr	-10.9694
▁lonely	-10.9694
▁estuve	-10.9694
▁fuente	-10.9695
▁charla	-10.9696
▁illness	-10.9696
▁trozo	-10.9697
▁imita	-10.9698
▁explicó	-10.97
▁brillante	-10.97
▁humanidad	-10.9704
▁tendría	-10.9704
▁cantando	-10.9706
▁fever	-10.971
▁south	-10.971
▁Vin	-10.9712
▁dish	-10.9715
▁quitar	-10.9715
▁mirada	-10.9715
cientos	-10.9755
▁discuti	-10.9762
▁sort	-10.9768
▁regla	-10.9781
▁40	-10.9785
▁shape	-10.9788
▁práctica	-10.9817
▁approach	-10.9817
▁recommend	-10.9817
▁velocidad	-10.9817
▁vergüenza	-10.9817
▁amenaza	-10.9817
▁Guerra	-10.9817
▁murieron	-10.9817
▁Rusia	-10.9817
▁memoriz	-10.9817
▁knee	-10.9817
▁dormí	-10.9818
▁sienta	-10.9818
▁ataque	-10.982
hol	-10.9821
▁fence	-10.9823
▁toalla	-10.9823
▁Dijo	-10.9828
▁trick	-10.983
▁moral	-10.9834
▁owner	-10.9846
▁apaga	-10.9847
▁workers	-10.9857
izó	-10.9865
▁besó	-10.9874
vá	-10.9876
▁coin	-10.9892
▁sport	-10.9894
▁jam	-10.9894
▁Haga	-10.9911
where	-10.9913
▁Compr	-10.9915
▁economía	-10.9942
▁political	-10.9942
▁explor	-10.9942
▁condiciones	-10.9942
▁battle	-10.9942
▁mediodía	-10.9942
▁banana	-10.9942
▁clever	-10.9942
▁costó	-10.9942
▁classroom	-10.9943
▁oyó	-10.9944
▁robaron	-10.9945
▁jail	-10.9946
▁saving	-10.9946
▁bound	-10.9946
▁baila	-10.9946
▁cough	-10.9947
▁interés	-10.9949
▁podé	-10.9949
▁colores	-10.9955
▁sail	-10.9955
▁actuar	-10.9959
▁desayunar	-10.9966
▁estacion	-10.9967
▁bow	-10.9968
▁jumped	-10.9969
▁contado	-10.9977
▁ocurre	-10.9978
▁pesa	-10.9992
▁verb	-10.9996
▁darme	-11.0017
▁goat	-11.0037
Pode	-11.0042
▁sweat	-11.0058
▁Trata	-11.0059
▁conduct	-11.0065
▁poca	-11.0065
▁effect	-11.0067
▁expresar	-11.0068
▁medianoche	-11.0068
▁método	-11.0068
▁sospechoso	-11.0068
▁thirsty	-11.0068
▁época	-11.0068
▁cortó	-11.0068
▁pregunté	-11.0068
▁biggest	-11.0068
▁method	-11.0068
▁sabido	-11.0068
▁entendí	-11.0069
▁pedido	-11.0069
▁childhood	-11.0069
▁election	-11.0069
▁Women	-11.0069
titut	-11.0072
▁denied	-11.0072
▁suave	-11.0074
▁sabor	-11.0075
▁cities	-11.0076
▁darte	-11.0078
▁saludable	-11.0082
▁recibido	-11.0082
▁cogió	-11.0082
▁trabajadores	-11.0083
▁contestar	-11.0083
▁dirigi	-11.0085
▁destroyed	-11.0085
▁pants	-11.0092
▁oblig	-11.0095
▁pack	-11.0098
▁appeared	-11.011
▁teaches	-11.0121
▁expecting	-11.0126
▁cabra	-11.0135
▁foreigner	-11.0153
▁fond	-11.016
▁lograr	-11.0168
▁apagar	-11.0171
▁pull	-11.0171
▁bello	-11.0185
▁descubr	-11.019
:30	-11.0196
▁classes	-11.0196
▁aprovech	-11.0197
▁responsabilidad	-11.0197
▁beyond	-11.0197
▁construct	-11.0197
▁cubierta	-11.0197
▁empezado	-11.0197
▁escuchó	-11.0197
▁examination	-11.0197
▁respeto	-11.0197
▁violence	-11.0197
▁First	-11.0197
▁chaqueta	-11.0197
▁anterior	-11.0197
▁bajó	-11.0197
▁wild	-11.0197
▁dancing	-11.0197
▁cuento	-11.0197
▁simply	-11.0197
▁handsome	-11.0197
▁rechaza	-11.0197
▁option	-11.0197
▁electro	-11.0198
▁complicated	-11.02
▁direction	-11.0202
▁prohibido	-11.0205
▁receive	-11.0205
▁factory	-11.0214
▁shame	-11.0226
▁recog	-11.0229
▁stronger	-11.0239
▁burned	-11.0242
▁dri	-11.0242
▁dentista	-11.0242
▁ladra	-11.0243
▁crossed	-11.025
▁pasará	-11.0273
▁aprend	-11.0273
▁dentist	-11.028
ified	-11.0286
▁achieve	-11.0299
▁Susan	-11.0306
room	-11.0306
▁adulto	-11.0312
▁bote	-11.032
▁airplane	-11.0326
▁correspond	-11.0326
▁discusión	-11.0326
▁diseñ	-11.0326
▁ejército	-11.0326
▁enemies	-11.0326
▁enfermera	-11.0326
▁extremadamente	-11.0326
▁international	-11.0326
▁móvil	-11.0326
▁nuclear	-11.0326
▁área	-11.0326
▁rostro	-11.0326
▁amazing	-11.0327
▁paquete	-11.0327
▁cerró	-11.0327
▁admire	-11.0327
▁llame	-11.0327
▁detuvo	-11.0327
▁volume	-11.0327
▁éste	-11.0327
Escucha	-11.0327
▁angel	-11.0328
▁irrita	-11.0328
▁lentamente	-11.0329
▁piense	-11.033
▁armario	-11.0332
▁insectos	-11.0333
▁friendly	-11.0334
▁region	-11.0334
▁defeat	-11.0344
▁Dije	-11.0344
▁jugo	-11.0346
▁polite	-11.0351
ink	-11.0353
▁copy	-11.0363
▁subir	-11.0365
▁escaped	-11.0374
▁complaining	-11.0374
▁borr	-11.0379
▁torre	-11.0394
▁minor	-11.04
ably	-11.0404
cidí	-11.0411
▁fill	-11.0445
▁Watch	-11.0458
▁Disculpe	-11.0458
▁Finalmente	-11.0458
▁Olvid	-11.0458
▁empezando	-11.0458
▁héroe	-11.0458
▁músico	-11.0458
▁scientist	-11.0458
▁televisor	-11.0458
▁bolso	-11.0458
▁especie	-11.0458
▁excited	-11.0458
▁remark	-11.0458
▁seldom	-11.0458
▁echó	-11.0458
▁behave	-11.0458
▁source	-11.0458
▁measure	-11.0458
▁cuyo	-11.0459
▁crash	-11.046
▁avanza	-11.046
▁Taro	-11.046
▁dejé	-11.0461
ille	-11.0462
▁salida	-11.0471
▁amarilla	-11.0472
▁credit	-11.0475
▁sucedió	-11.0481
▁However	-11.0484
▁abandonó	-11.0496
▁exig	-11.0498
▁Quere	-11.0501
▁admitir	-11.0501
▁prisoner	-11.0502
▁Gal	-11.0517
▁Vive	-11.0543
▁Baj	-11.0582
▁bottom	-11.0591
▁francesa	-11.0591
▁furniture	-11.0591
▁inevitable	-11.0591
▁llueva	-11.0591
▁maravilloso	-11.0591
▁eleven	-11.0591
▁silence	-11.0591
▁atrapado	-11.0591
▁colour	-11.0591
▁perdón	-11.0591
▁stamp	-11.0592
▁captura	-11.0592
▁verduras	-11.0592
▁Open	-11.0592
▁tourist	-11.0592
▁magic	-11.0592
▁descubrió	-11.0593
▁11	-11.0594
▁ventaja	-11.0595
▁deliver	-11.0598
▁attract	-11.0605
▁Trabajo	-11.0613
▁roman	-11.0623
▁pedirle	-11.0624
▁posición	-11.0625
like	-11.063
▁llegaron	-11.0644
▁rope	-11.0646
ivity	-11.0647
▁cercano	-11.0652
▁saltó	-11.0653
▁design	-11.0681
▁Ning	-11.0691
▁cuida	-11.0695
▁discover	-11.0703
güe	-11.0711
▁Aprende	-11.0717
▁California	-11.0727
▁dueño	-11.0727
▁kilómetros	-11.0727
▁mundial	-11.0727
▁océano	-11.0727
▁universal	-11.0727
▁victoria	-11.0727
▁voluntad	-11.0727
▁approve	-11.0727
▁genial	-11.0727
▁cheer	-11.0727
▁ausente	-11.0727
▁elección	-11.0728
▁amarillo	-11.0728
▁cartera	-11.0728
▁pianist	-11.0728
▁oficial	-11.0729
▁estilo	-11.073
▁moving	-11.0732
▁shit	-11.0733
▁calidad	-11.0733
▁colina	-11.0734
▁slight	-11.0734
▁musician	-11.0734
▁conversa	-11.0736
▁contrario	-11.0736
béis	-11.0737
▁sweater	-11.0739
▁Eat	-11.074
▁contiene	-11.0752
▁climbed	-11.0757
▁clearly	-11.0763
▁pata	-11.0764
▁offered	-11.0786
▁pintar	-11.0792
▁tratado	-11.0793
▁vela	-11.0798
▁Pasa	-11.0808
▁trae	-11.0824
▁army	-11.0837
How	-11.0837
▁oye	-11.0845
▁volveré	-11.0861
▁Chicago	-11.0864
▁celular	-11.0864
▁departamento	-11.0864
▁industria	-11.0864
▁persuade	-11.0864
▁Before	-11.0864
▁rueda	-11.0864
▁goodbye	-11.0864
▁aparece	-11.0864
▁junio	-11.0864
▁detener	-11.0864
▁retire	-11.0864
▁conflict	-11.0865
▁virus	-11.0865
▁soft	-11.0866
▁espero	-11.0868
▁patio	-11.0868
▁represent	-11.0872
▁salary	-11.0872
▁granja	-11.0906
▁espere	-11.0911
▁import	-11.0927
▁iguales	-11.093
▁debt	-11.0939
tiene	-11.0945
▁contract	-11.0948
▁Part	-11.0948
▁votar	-11.0958
▁salad	-11.0959
▁Ge	-11.0971
▁equivoca	-11.0973
Todo	-11.0977
▁demanda	-11.0979
▁sudden	-11.0993
implemente	-11.0998
▁Argentina	-11.1002
▁Twitter	-11.1002
▁Welcome	-11.1002
▁acknowledg	-11.1002
▁exchange	-11.1002
▁optim	-11.1002
▁conferencia	-11.1002
▁mezcla	-11.1002
▁tamaño	-11.1002
▁suicide	-11.1002
▁President	-11.1002
▁Listen	-11.1003
▁guests	-11.1003
▁tradition	-11.1003
▁asombr	-11.1003
▁17	-11.1004
▁Learn	-11.1004
▁logro	-11.1005
▁US	-11.1008
▁consola	-11.101
▁salario	-11.101
▁potatoes	-11.101
▁recover	-11.1011
pong	-11.1015
▁Dejé	-11.1017
▁bald	-11.1017
▁deeply	-11.1025
▁golpeó	-11.1038
▁Vale	-11.1045
▁North	-11.1045
▁attacked	-11.1046
▁fallen	-11.1051
▁treated	-11.1059
plan	-11.1064
▁Debi	-11.1068
▁tranquilo	-11.1074
▁500	-11.1079
▁lower	-11.108
▁vemos	-11.1108
pping	-11.1131
▁villa	-11.1134
▁actu	-11.1139
▁press	-11.1139
▁Muslim	-11.1143
▁Perdón	-11.1143
▁conclusion	-11.1143
▁razones	-11.1143
▁África	-11.1143
▁ocurrir	-11.1143
▁percent	-11.1143
▁batalla	-11.1143
▁block	-11.1143
▁website	-11.1143
▁various	-11.1143
▁diablo	-11.1143
▁spider	-11.1143
cepción	-11.1144
▁process	-11.1144
▁slave	-11.1144
▁cometido	-11.1145
▁South	-11.1145
▁predict	-11.1146
▁investigación	-11.1147
▁espada	-11.1148
▁vendría	-11.1154
▁invest	-11.1155
▁justicia	-11.1157
cedió	-11.116
▁mate	-11.1175
▁rate	-11.1206
▁frame	-11.1212
▁rota	-11.1228
▁saberlo	-11.1237
20	-11.1258
▁include	-11.1263
▁agradec	-11.1271
ografía	-11.1286
▁British	-11.1286
▁Normalmente	-11.1286
▁complex	-11.1286
▁economic	-11.1286
▁quality	-11.1286
▁software	-11.1286
▁víctima	-11.1286
▁adentro	-11.1286
▁screen	-11.1286
▁afecta	-11.1286
▁Nací	-11.1286
▁Berber	-11.1286
▁poniendo	-11.1286
▁cierra	-11.1286
▁esconder	-11.1286
▁gallina	-11.1287
▁Hold	-11.1287
▁pierde	-11.1287
▁detective	-11.1287
▁committed	-11.1288
▁olor	-11.1289
▁apoya	-11.1291
▁mortal	-11.1291
▁argue	-11.1292
▁trabajó	-11.1296
▁aliment	-11.1297
▁wheel	-11.1297
▁Despi	-11.1299
▁passion	-11.1301
▁lemon	-11.1302
▁tocando	-11.1305
▁trap	-11.1308
▁china	-11.1309
▁thin	-11.1318
▁urgente	-11.1349
▁limpio	-11.1349
▁disfrut	-11.1359
▁nervios	-11.1378
▁scr	-11.1384
▁puse	-11.1406
▁Entr	-11.1416
▁fog	-11.1427
▁Intenté	-11.1431
▁Shakespeare	-11.1431
▁agujero	-11.1431
▁apariencia	-11.1431
▁asesinato	-11.1431
▁hubiese	-11.1431
▁identific	-11.1431
▁límite	-11.1431
▁permanece	-11.1431
▁progress	-11.1431
▁riqueza	-11.1431
▁confused	-11.1431
▁pronounce	-11.1431
▁Jesus	-11.1431
▁invitó	-11.1431
▁threat	-11.1431
▁derrota	-11.1431
▁bebiendo	-11.1431
▁awful	-11.1432
▁impact	-11.1432
▁task	-11.1432
▁humo	-11.1432
▁retira	-11.1432
▁court	-11.1434
▁successful	-11.1435
▁obtener	-11.1436
▁Music	-11.1437
▁upset	-11.1438
▁cuidadoso	-11.1439
▁agreement	-11.144
▁nail	-11.1446
plica	-11.1447
▁disappeared	-11.1447
▁pesado	-11.1455
▁achieved	-11.1461
▁customer	-11.1462
pusieron	-11.1463
▁Sigue	-11.1467
▁climate	-11.1473
▁grade	-11.1475
▁remained	-11.148
▁Gan	-11.1485
▁leyó	-11.1497
▁invented	-11.151
▁ocultar	-11.1518
Buen	-11.1521
finitely	-11.1543
▁manage	-11.1551
▁Arabic	-11.1578
▁crédito	-11.1578
▁dibuja	-11.1578
▁involucr	-11.1578
▁rabbit	-11.1578
▁victim	-11.1578
▁intento	-11.1578
▁guapo	-11.1578
▁devolver	-11.1578
▁average	-11.1578
▁euros	-11.1578
▁actitud	-11.1579
▁mierda	-11.1579
▁gris	-11.158
▁further	-11.1581
▁addict	-11.1582
▁resign	-11.1592
▁tenés	-11.1596
▁peligrosa	-11.1597
▁descansar	-11.1607
▁basta	-11.1611
▁skill	-11.1613
▁perfectly	-11.1618
▁Dud	-11.1637
▁acusado	-11.1639
▁highly	-11.1652
▁Ku	-11.1659
▁pagan	-11.166
▁debate	-11.166
hibi	-11.1666
▁ofrece	-11.1673
▁alcanza	-11.1678
▁encarg	-11.1694
▁flow	-11.1719
▁ilegal	-11.1727
▁sándwich	-11.1727
▁Google	-11.1727
▁Mundial	-11.1727
▁cigarrillo	-11.1727
▁despertó	-11.1727
▁bromeando	-11.1727
▁lloró	-11.1727
▁thick	-11.1727
▁Black	-11.1727
▁maestra	-11.1727
▁polaco	-11.1727
ámonos	-11.1728
▁acostar	-11.1728
▁gentleman	-11.1728
▁dust	-11.1728
▁tumba	-11.1729
▁tuvimos	-11.1729
▁foolish	-11.1729
▁consigo	-11.1729
▁spot	-11.173
▁reflect	-11.173
▁consume	-11.173
▁coward	-11.1734
▁alarma	-11.1736
▁escribí	-11.1736
Soy	-11.1736
▁Encontra	-11.1737
▁pecado	-11.174
Cuidado	-11.1741
▁datos	-11.1741
▁June	-11.1743
▁entregar	-11.1759
▁leader	-11.176
▁limpi	-11.1762
▁escuchado	-11.1764
Su	-11.1776
▁explica	-11.1784
ium	-11.1787
▁create	-11.1791
▁acabado	-11.1798
▁contrato	-11.18
▁monte	-11.1804
▁urgent	-11.1815
▁pig	-11.1821
▁Toki	-11.1841
▁pide	-11.1842
▁salva	-11.1848
Debería	-11.1853
known	-11.1853
▁completa	-11.1876
struyó	-11.1879
▁Egypt	-11.1879
▁Vuelv	-11.1879
▁aceptó	-11.1879
▁actividad	-11.1879
▁bilingual	-11.1879
▁bilingüe	-11.1879
▁economy	-11.1879
▁fundamental	-11.1879
▁influence	-11.1879
▁juventud	-11.1879
▁literatura	-11.1879
▁refrigerator	-11.1879
▁excusa	-11.1879
▁Parecía	-11.1879
▁combina	-11.1879
▁cheque	-11.1879
▁castiga	-11.1879
▁context	-11.1879
▁drove	-11.1879
▁logró	-11.1879
▁Robert	-11.1879
▁continent	-11.1879
▁breve	-11.1879
▁declara	-11.188
▁acabo	-11.188
▁alegre	-11.188
▁solucion	-11.1881
▁tough	-11.1881
▁Help	-11.1881
▁photograph	-11.1882
ándome	-11.1882
▁breathe	-11.1885
▁socks	-11.1885
▁exception	-11.1885
▁millas	-11.1887
▁preparando	-11.1887
▁subió	-11.1889
▁deuda	-11.1907
▁solamente	-11.1916
▁Compra	-11.1918
▁border	-11.1921
▁Nu	-11.1938
▁anger	-11.194
▁acusa	-11.1971
hook	-11.1976
▁radi	-11.1985
▁custom	-11.2
▁Aprend	-11.2002
▁considerado	-11.2002
▁mantuv	-11.2009
▁fila	-11.2013
socia	-11.2029
▁oppos	-11.2032
Bienvenido	-11.2033
▁Picasso	-11.2033
▁apellido	-11.2033
▁challenge	-11.2033
▁cheek	-11.2033
▁evidence	-11.2033
▁genius	-11.2033
▁instrucciones	-11.2033
▁kilometers	-11.2033
▁password	-11.2033
▁phrase	-11.2033
▁tímido	-11.2033
▁relative	-11.2033
▁falsa	-11.2033
▁greet	-11.2033
▁Emily	-11.2033
▁buried	-11.2033
▁genio	-11.2033
▁spell	-11.2033
▁Mark	-11.2033
▁ardilla	-11.2034
▁altura	-11.2035
▁dislike	-11.2035
▁calent	-11.2039
▁rarely	-11.2041
▁mosca	-11.2042
▁presentar	-11.2055
▁sheep	-11.2057
▁Cats	-11.2062
▁pulled	-11.2064
▁trago	-11.2065
▁perdonar	-11.2074
▁Perdi	-11.2088
▁lamenta	-11.2096
aut	-11.2121
▁organ	-11.2131
▁preguntaba	-11.2141
K	-11.216
Hola	-11.2163
puso	-11.2187
▁robar	-11.2188
▁Colombia	-11.2189
▁Llegué	-11.2189
▁emergency	-11.2189
▁illegal	-11.2189
▁incluye	-11.2189
▁research	-11.2189
▁sospecha	-11.2189
▁vehículo	-11.2189
▁brief	-11.2189
▁desprecia	-11.2189
▁plenty	-11.2189
▁desierto	-11.2189
▁sword	-11.2189
▁viniera	-11.2189
▁style	-11.2189
▁escena	-11.2189
▁abstract	-11.2189
▁allergi	-11.2189
▁enfadar	-11.2189
▁command	-11.2189
▁distract	-11.219
▁emotion	-11.219
▁transmit	-11.219
▁swear	-11.219
▁congela	-11.219
▁Brazilian	-11.2191
▁Yumi	-11.2191
▁vistazo	-11.2194
▁manner	-11.2195
▁Alex	-11.2197
▁melt	-11.2205
▁continua	-11.221
Podé	-11.222
ísimo	-11.222
▁servir	-11.2226
▁pity	-11.2241
▁pop	-11.2242
▁Entre	-11.2265
▁montar	-11.2288
▁guardia	-11.2292
▁image	-11.2305
Where	-11.2321
▁clav	-11.2324
▁representa	-11.2338
▁north	-11.2347
▁appointment	-11.2348
▁apresur	-11.2348
▁capitán	-11.2348
▁despierta	-11.2348
▁disfraz	-11.2348
▁herramienta	-11.2348
▁invitation	-11.2348
▁milagro	-11.2348
▁pleasant	-11.2348
▁responsibility	-11.2348
▁tecnología	-11.2348
▁ángel	-11.2348
▁attitude	-11.2348
▁official	-11.2348
▁Fadil	-11.2348
▁changing	-11.2348
▁falso	-11.2348
▁impuestos	-11.2348
▁mascota	-11.2348
▁rescue	-11.2348
▁asistir	-11.2348
▁female	-11.2348
▁durmió	-11.2348
▁mínimo	-11.2348
▁coopera	-11.2348
▁elecciones	-11.2348
▁located	-11.2348
▁elected	-11.2348
▁modest	-11.2348
▁sueldo	-11.2349
▁subway	-11.235
▁encontramos	-11.235
berg	-11.2353
▁anyway	-11.2359
▁Bible	-11.2359
▁billetera	-11.236
▁European	-11.2363
▁useless	-11.237
▁host	-11.2378
▁Yu	-11.238
▁dará	-11.2401
▁quedaron	-11.2403
▁encontr	-11.2434
▁sano	-11.2456
▁Ph	-11.2498
ological	-11.2508
▁aprobar	-11.2509
▁cortina	-11.2509
▁delicioso	-11.2509
▁entendido	-11.2509
▁horror	-11.2509
▁literature	-11.2509
▁mariposa	-11.2509
▁profession	-11.2509
▁regresó	-11.2509
▁sencillo	-11.2509
▁strike	-11.2509
▁arrogant	-11.2509
▁captain	-11.2509
▁voluntari	-11.2509
▁zorro	-11.2509
▁desnudo	-11.2509
▁interior	-11.2509
▁ensalada	-11.2509
▁boleto	-11.2509
▁plata	-11.2509
▁strict	-11.2509
▁oveja	-11.2509
▁someday	-11.2509
▁reply	-11.251
▁eterna	-11.251
▁derram	-11.251
▁appearance	-11.251
▁volví	-11.2511
▁ríe	-11.2512
▁electricidad	-11.2512
▁electricity	-11.2512
▁bench	-11.2512
▁197	-11.2513
▁temper	-11.2513
▁tallest	-11.2519
▁Carlos	-11.2521
▁volando	-11.2522
▁Due	-11.2522
▁sangra	-11.2527
▁ayudarnos	-11.2533
▁anima	-11.2541
▁viaj	-11.2613
▁fatal	-11.2633
▁mol	-11.2661
▁comfort	-11.2671
Tené	-11.2671
▁comporta	-11.2673
▁recuperar	-11.2673
▁alternativa	-11.2673
▁cobarde	-11.2673
▁contraseña	-11.2673
▁desperté	-11.2673
▁environment	-11.2673
▁equipaje	-11.2673
▁gracioso	-11.2673
▁invitación	-11.2673
▁motorcycle	-11.2673
▁oscura	-11.2673
▁pasajeros	-11.2673
▁pasatiempo	-11.2673
▁suspicious	-11.2673
▁symbol	-11.2673
▁smiling	-11.2673
▁hierba	-11.2673
▁ancient	-11.2673
▁gatito	-11.2673
▁acuerda	-11.2673
▁okay	-11.2673
▁gerente	-11.2673
▁apagó	-11.2673
▁habido	-11.2673
▁conoció	-11.2673
▁opposite	-11.2673
▁turista	-11.2673
▁despise	-11.2673
▁ésta	-11.2674
▁violin	-11.2674
▁pressure	-11.2674
▁fox	-11.2679
ónica	-11.268
▁motiva	-11.2681
▁pegó	-11.2681
▁candy	-11.2681
▁ditch	-11.2683
mpecé	-11.2684
▁Llama	-11.2687
▁equivocada	-11.2688
▁engineer	-11.2697
▁factor	-11.27
▁rind	-11.2714
▁multi	-11.2721
▁serie	-11.2757
▁miraba	-11.277
▁colga	-11.2802
▁profunda	-11.2835
safortunadamente	-11.284
▁Berlin	-11.284
▁Tuesday	-11.284
▁asesinado	-11.284
▁astronaut	-11.284
▁emergencia	-11.284
▁enfrenta	-11.284
▁passengers	-11.284
▁repetir	-11.284
▁schedule	-11.284
▁elegido	-11.284
▁ingreso	-11.284
▁balance	-11.284
▁desespera	-11.284
▁Israel	-11.284
▁Money	-11.284
▁agarró	-11.284
▁adorable	-11.284
▁medical	-11.284
▁escenario	-11.2841
▁confía	-11.2841
▁attractive	-11.2842
▁13	-11.2842
▁effective	-11.2842
▁print	-11.2842
▁permission	-11.2842
▁fought	-11.2842
▁Human	-11.2844
▁powerful	-11.2844
▁Visit	-11.2849
▁martes	-11.285
▁importance	-11.2851
▁agotado	-11.2855
▁agreg	-11.2857
▁preguntarle	-11.2863
▁bang	-11.2864
▁revisa	-11.2887
lógico	-11.2889
▁infect	-11.2903
▁cocin	-11.291
▁suceder	-11.2915
▁terrorist	-11.2936
▁compartir	-11.2945
guard	-11.2962
▁fashion	-11.2978
▁suppose	-11.2982
▁continuar	-11.2987
▁Llam	-11.2996
cómo	-11.3009
▁corrupt	-11.3009
▁Austria	-11.3009
▁Berlín	-11.3009
▁General	-11.3009
▁Smoking	-11.3009
▁audience	-11.3009
▁cubierto	-11.3009
▁disturb	-11.3009
▁encourage	-11.3009
▁flood	-11.3009
▁independiente	-11.3009
▁ingredient	-11.3009
▁basketball	-11.3009
▁fridge	-11.3009
▁screw	-11.3009
▁abilities	-11.3009
▁alcalde	-11.3009
▁witness	-11.3009
▁curtain	-11.3009
▁heaven	-11.3009
▁hicimos	-11.3009
▁anciana	-11.3009
▁disguise	-11.3009
▁acercó	-11.3009
▁asesino	-11.3009
▁rodilla	-11.3009
▁stress	-11.3009
▁cuadra	-11.3009
▁stage	-11.3009
▁ballena	-11.301
▁bereber	-11.301
▁aumento	-11.301
▁joking	-11.3011
▁testigo	-11.3011
▁periodista	-11.3011
▁lips	-11.3011
▁envió	-11.3012
▁imaginación	-11.3012
▁arriesg	-11.3012
ólogo	-11.3013
▁settle	-11.3013
▁Estudia	-11.3014
▁muchísimo	-11.3015
▁195	-11.3015
▁posee	-11.3018
▁tendré	-11.3019
▁cultural	-11.3021
▁veneno	-11.3023
▁consumi	-11.3027
▁apply	-11.3035
▁Tres	-11.3039
▁pesca	-11.3046
▁Tené	-11.3052
▁Big	-11.3054
▁clara	-11.3057
▁cercana	-11.3057
Sobre	-11.3062
▁hoja	-11.3075
Cambi	-11.3075
omb	-11.3076
▁constitu	-11.3081
▁agradecer	-11.3094
▁cabe	-11.3108
▁Nei	-11.3133
Viene	-11.3158
▁resolv	-11.3171
▁rápida	-11.3177
ologist	-11.3181
▁Beethoven	-11.3181
▁Biblia	-11.3181
▁Harvard	-11.3181
▁Lincoln	-11.3181
▁Taninna	-11.3181
▁adolescente	-11.3181
▁avergonzado	-11.3181
▁dibujo	-11.3181
▁efectivo	-11.3181
▁eventually	-11.3181
▁infancia	-11.3181
▁monkey	-11.3181
▁vídeo	-11.3181
▁convencido	-11.3181
▁pantalla	-11.3181
▁quizá	-11.3181
▁cosecha	-11.3182
▁pedazo	-11.3182
▁shadow	-11.3182
▁flew	-11.3182
▁hierro	-11.3182
▁Shut	-11.3182
▁poesía	-11.3182
▁contamina	-11.3182
▁Judy	-11.3182
▁militar	-11.3182
▁«¡	-11.3182
▁gemelo	-11.3182
▁princesa	-11.3182
▁bordo	-11.3182
▁warned	-11.3182
▁siesta	-11.3183
▁punta	-11.3184
▁Kobe	-11.3185
▁baile	-11.3188
▁fecha	-11.319
▁candle	-11.3192
▁Tanto	-11.3194
▁cinema	-11.3196
Seguro	-11.3199
ü	-11.3202
▁importaría	-11.3204
▁intentado	-11.3206
▁cometió	-11.3207
▁levantarse	-11.3208
▁reconocer	-11.3223
▁acompañar	-11.3234
▁brand	-11.3253
omic	-11.3255
▁edit	-11.3265
▁Real	-11.328
▁destroy	-11.3333
▁disappoint	-11.3333
Fue	-11.3334
▁jewel	-11.3357
▁Jesús	-11.3357
▁calcetines	-11.3357
▁cinturón	-11.3357
▁democracia	-11.3357
▁distinguish	-11.3357
▁escondiendo	-11.3357
▁neighbour	-11.3357
▁resemble	-11.3357
▁squirrel	-11.3357
▁traductor	-11.3357
▁vuestra	-11.3357
▁vuestro	-11.3357
Sayib	-11.3357
▁deshacer	-11.3357
▁presence	-11.3357
▁praise	-11.3357
▁trece	-11.3357
▁muerta	-11.3357
▁burst	-11.3357
▁inspira	-11.3357
▁millón	-11.3357
volviendo	-11.3358
▁Hurry	-11.3358
▁hidden	-11.3358
▁Close	-11.3358
▁reduce	-11.3359
▁reform	-11.3359
▁aprendió	-11.3359
▁desapareció	-11.336
▁Park	-11.3363
▁frontera	-11.3364
▁coincid	-11.3364
▁eleva	-11.3365
▁couch	-11.3366
▁negar	-11.3371
▁menú	-11.3373
▁Luna	-11.3375
▁saliendo	-11.3376
▁preferido	-11.3379
▁bitter	-11.3382
▁terror	-11.3433
uviste	-11.3448
▁desayuna	-11.35
▁August	-11.3535
▁Halloween	-11.3535
▁Hokkaido	-11.3535
▁Nemesio	-11.3535
▁Remember	-11.3535
▁community	-11.3535
▁disparó	-11.3535
▁enseguida	-11.3535
▁infantil	-11.3535
▁influencia	-11.3535
▁judío	-11.3535
▁physical	-11.3535
▁plátano	-11.3535
▁prisionero	-11.3535
▁surrounded	-11.3535
▁vuela	-11.3535
▁zanahoria	-11.3535
▁champion	-11.3535
▁licencia	-11.3536
▁pesadilla	-11.3536
▁apoyo	-11.3536
▁register	-11.3536
▁transform	-11.3536
▁branch	-11.3536
▁blew	-11.3536
▁condición	-11.3536
▁coleccion	-11.3536
▁tesoro	-11.3536
▁Pedro	-11.3536
▁mejilla	-11.3536
▁Few	-11.3536
▁mueve	-11.3536
▁mystery	-11.3536
▁tigre	-11.3536
▁raw	-11.3536
▁pupil	-11.3537
▁prohibited	-11.3538
▁devil	-11.3539
▁mineral	-11.354
▁mantiene	-11.3542
▁Phil	-11.3547
▁kindness	-11.3548
▁nearest	-11.355
▁partida	-11.3556
▁acordar	-11.3571
Estaba	-11.3572
▁renunciar	-11.362
▁perdona	-11.3669
Why	-11.3691
▁Mario	-11.3701
Mira	-11.371
▁llovi	-11.3717
▁frecuente	-11.3717
▁Barcelona	-11.3717
▁January	-11.3717
▁Señor	-11.3717
▁accompanied	-11.3717
▁comunidad	-11.3717
▁expresión	-11.3717
▁independent	-11.3717
▁lectura	-11.3717
▁notebook	-11.3717
▁plástico	-11.3717
▁possibility	-11.3717
▁ridiculous	-11.3717
▁sabiduría	-11.3717
▁plastic	-11.3717
▁regaló	-11.3717
▁sensible	-11.3717
▁unlikely	-11.3717
▁caído	-11.3717
▁release	-11.3718
▁seguida	-11.3718
▁risa	-11.3718
▁winning	-11.3718
▁vigil	-11.3718
▁occurred	-11.3718
▁hueso	-11.372
▁salvaje	-11.372
▁collar	-11.3721
▁agradecido	-11.3721
▁noisy	-11.3721
▁Promet	-11.3723
▁flies	-11.3723
▁cima	-11.3732
▁sheet	-11.3733
hings	-11.3741
▁tiger	-11.3744
▁pago	-11.3759
▁visa	-11.3765
▁Pensaba	-11.3765
ística	-11.3774
Viv	-11.379
▁fake	-11.3793
▁Usa	-11.3874
Realmente	-11.3876
▁ignorant	-11.3881
▁reproduc	-11.3902
▁Cookie	-11.3902
▁Mayuko	-11.3902
▁Turkish	-11.3902
▁alphabet	-11.3902
▁basket	-11.3902
▁consciousness	-11.3902
▁desgracia	-11.3902
▁escondido	-11.3902
▁escucho	-11.3902
▁gritó	-11.3902
▁opponent	-11.3902
▁technology	-11.3902
▁temporada	-11.3902
▁treasure	-11.3902
▁término	-11.3902
▁gigante	-11.3903
▁gloves	-11.3903
▁curious	-11.3903
▁truly	-11.3903
▁capaces	-11.3903
▁impresión	-11.3903
▁Pablo	-11.3903
▁honey	-11.3903
▁pudimos	-11.3903
▁traído	-11.3903
▁causó	-11.3903
▁divertir	-11.3903
▁Ahí	-11.3903
▁Play	-11.3903
▁mintió	-11.3903
▁crema	-11.3903
▁permanent	-11.3903
▁región	-11.3904
▁miracle	-11.3904
▁basic	-11.3904
▁faint	-11.3905
▁alimentos	-11.3909
▁pagó	-11.3911
▁Jones	-11.3911
▁decepcionado	-11.392
▁librería	-11.3925
▁pesada	-11.3931
▁maneja	-11.3965
▁mask	-11.3969
▁shoe	-11.3981
Oye	-11.4031
▁Camina	-11.4067
▁materia	-11.4085
▁announce	-11.4091
▁occasion	-11.4091
▁volunteer	-11.4091
/	-11.4091
▁Washington	-11.4091
▁adecuado	-11.4091
▁alfombra	-11.4091
▁aproximadamente	-11.4091
▁archivo	-11.4091
▁aventura	-11.4091
▁baloncesto	-11.4091
▁camiseta	-11.4091
▁curiosidad	-11.4091
▁depressed	-11.4091
▁entienda	-11.4091
▁espíritu	-11.4091
▁extraordinari	-11.4091
▁levanté	-11.4091
▁líder	-11.4091
▁physics	-11.4091
▁química	-11.4091
▁Frank	-11.4091
▁cuánta	-11.4091
▁switch	-11.4091
▁conecta	-11.4091
▁envidia	-11.4091
▁batería	-11.4091
▁chew	-11.4091
▁molesto	-11.4091
▁drew	-11.4091
▁Doctor	-11.4091
▁guantes	-11.4091
▁visible	-11.4092
▁rare	-11.4092
▁reparar	-11.4092
▁wolf	-11.4093
▁nevar	-11.4094
▁romantic	-11.4094
▁Lucy	-11.4094
▁flota	-11.4094
▁score	-11.4095
▁24	-11.4096
▁daily	-11.4096
▁replace	-11.4097
▁perfectamente	-11.4097
▁princess	-11.4098
▁fluently	-11.4099
▁asegurar	-11.4099
▁carpet	-11.4107
▁rug	-11.4107
▁Vaya	-11.4119
▁abril	-11.4137
▁sucede	-11.4208
▁scratch	-11.4283
▁April	-11.4283
▁Hungarian	-11.4283
▁Suddenly	-11.4283
▁Switzerland	-11.4283
▁aburrida	-11.4283
▁almohada	-11.4283
▁automóvil	-11.4283
▁carácter	-11.4283
▁deliciosa	-11.4283
▁embarrassed	-11.4283
▁establish	-11.4283
▁filosofía	-11.4283
▁fluidez	-11.4283
▁petróleo	-11.4283
▁prefiero	-11.4283
▁profesional	-11.4283
▁ridículo	-11.4283
▁símbolo	-11.4283
▁thirteen	-11.4283
▁uñas	-11.4283
▁Finland	-11.4283
▁actriz	-11.4283
▁demonio	-11.4283
▁despedido	-11.4283
▁ignorancia	-11.4283
▁inglesa	-11.4283
▁privado	-11.4283
▁translator	-11.4283
▁grateful	-11.4283
▁Primero	-11.4284
▁bloque	-11.4284
▁aspirin	-11.4284
▁origen	-11.4284
▁happie	-11.4284
▁rayo	-11.4284
▁priest	-11.4284
▁podamos	-11.4284
▁elimina	-11.4284
▁Consider	-11.4285
▁pierda	-11.4285
▁turco	-11.4285
▁pride	-11.4285
▁comercial	-11.4285
▁silly	-11.4286
▁bombero	-11.4287
▁wings	-11.4289
▁Lisa	-11.4289
▁valle	-11.4291
▁pobreza	-11.4292
▁active	-11.4294
▁function	-11.4296
ísima	-11.4298
▁naive	-11.43
▁nuts	-11.4305
▁acid	-11.4308
▁basa	-11.4317
▁evita	-11.4386
▁Much	-11.4417
sistió	-11.442
Recuerda	-11.444
▁crow	-11.4453
▁prohibi	-11.4467
▁convenient	-11.4472
▁autumn	-11.448
▁betrayed	-11.448
▁británico	-11.448
▁bucket	-11.448
▁conference	-11.448
▁journey	-11.448
▁lógica	-11.448
▁título	-11.448
▁ácido	-11.448
▁Pregunt	-11.448
▁despertado	-11.448
▁robbed	-11.448
▁arguing	-11.448
▁whale	-11.448
▁actress	-11.448
▁moleste	-11.448
▁racist	-11.448
▁presencia	-11.448
▁nieto	-11.448
▁esperó	-11.4481
▁aparc	-11.4482
▁Year	-11.4482
▁fold	-11.4483
▁flame	-11.4485
▁guide	-11.4485
▁boast	-11.4486
▁expression	-11.4486
▁shine	-11.4487
▁pecho	-11.4497
▁trabajador	-11.452
ministr	-11.4532
▁dragon	-11.4624
place	-11.4679
▁Francisco	-11.468
▁Pregúntale	-11.468
▁afortunado	-11.468
▁aprendizaje	-11.468
▁cristiano	-11.468
▁encuentre	-11.468
▁frequent	-11.468
▁journalist	-11.468
▁lámpara	-11.468
▁parecido	-11.468
▁pública	-11.468
▁rechazó	-11.468
▁recientemente	-11.468
▁reconoció	-11.468
▁semejante	-11.468
▁traducciones	-11.468
▁perfume	-11.468
▁Volveré	-11.468
▁instituto	-11.468
▁refugi	-11.468
▁ceiling	-11.468
▁ocasión	-11.468
▁digital	-11.468
Recibí	-11.468
▁classmates	-11.468
▁fruto	-11.468
▁favourite	-11.468
▁nightmare	-11.468
▁zoológico	-11.468
▁double	-11.468
▁administra	-11.468
▁unique	-11.468
▁esquiar	-11.468
▁package	-11.4681
▁link	-11.4681
▁Viaj	-11.4682
▁secretary	-11.4683
▁campana	-11.4683
▁festival	-11.4683
▁hyp	-11.4686
▁chest	-11.4686
▁sordo	-11.4688
▁title	-11.4691
▁banca	-11.4692
▁belt	-11.4698
▁combat	-11.4699
Gracias	-11.4857
credit	-11.486
▁commit	-11.4881
▁occur	-11.4883
▁repentina	-11.4884
▁Think	-11.4884
▁puntual	-11.4884
▁Llámame	-11.4884
▁añadir	-11.4884
▁corriente	-11.4884
▁distinto	-11.4884
▁esclavo	-11.4884
▁hambriento	-11.4884
▁monstruo	-11.4884
▁pañuelo	-11.4884
▁species	-11.4884
▁supplie	-11.4884
▁wisdom	-11.4884
▁Marika	-11.4884
▁Mennad	-11.4884
▁gasolina	-11.4884
▁laptop	-11.4884
▁victory	-11.4884
▁violín	-11.4884
▁vomit	-11.4884
▁empeora	-11.4884
▁nonsense	-11.4884
▁duck	-11.4884
▁divertida	-11.4884
▁spoil	-11.4884
▁garage	-11.4884
▁sensación	-11.4884
▁Next	-11.4884
▁sesenta	-11.4884
▁creature	-11.4884
▁incómodo	-11.4884
▁dessert	-11.4884
▁locura	-11.4884
▁supper	-11.4884
▁worn	-11.4884
▁patatas	-11.4884
▁vitamin	-11.4885
▁majority	-11.4886
▁served	-11.4886
▁imagination	-11.4888
▁Guard	-11.4888
▁claramente	-11.4889
▁reservation	-11.489
▁root	-11.49
▁compone	-11.4904
▁examine	-11.4906
▁shake	-11.4921
cendió	-11.4939
▁creí	-11.4941
▁borde	-11.5034
▁modif	-11.5053
▁disappear	-11.5068
▁major	-11.509
▁Llegó	-11.5092
▁Tanaka	-11.5092
▁abducted	-11.5092
▁aprobó	-11.5092
▁bleeding	-11.5092
▁conocida	-11.5092
▁cuaderno	-11.5092
▁explosion	-11.5092
▁exámenes	-11.5092
▁impaciente	-11.5092
▁impidió	-11.5092
▁interview	-11.5092
▁principiante	-11.5092
▁razonable	-11.5092
▁architect	-11.5092
▁espacial	-11.5092
▁cepilla	-11.5092
▁invisible	-11.5092
▁quarter	-11.5092
▁figura	-11.5092
▁crack	-11.5092
▁afirma	-11.5092
▁vinieron	-11.5092
▁Death	-11.5092
▁hammer	-11.5092
▁central	-11.5092
▁adiós	-11.5093
▁pongo	-11.5093
▁labios	-11.5093
▁receta	-11.5093
▁estima	-11.5094
recieron	-11.5096
▁normas	-11.5097
▁autoridad	-11.5097
▁collection	-11.51
▁coloca	-11.5103
▁rendir	-11.5104
▁sake	-11.5105
▁logic	-11.5191
sistencia	-11.5201
▁llen	-11.5213
▁detect	-11.5233
house	-11.5285
▁orgullo	-11.5302
▁obvio	-11.5302
▁govern	-11.5304
▁Happ	-11.5304
▁manifest	-11.5305
▁Egipto	-11.5305
▁Policía	-11.5305
▁Quédate	-11.5305
▁School	-11.5305
▁cariño	-11.5305
▁confessed	-11.5305
▁conjunto	-11.5305
▁democracy	-11.5305
▁desconocido	-11.5305
▁eléctrica	-11.5305
▁kitten	-11.5305
▁lecture	-11.5305
▁monument	-11.5305
▁preparing	-11.5305
▁principle	-11.5305
▁progreso	-11.5305
▁struggle	-11.5305
▁throat	-11.5305
▁tortuga	-11.5305
▁virtud	-11.5305
▁circula	-11.5305
▁gramática	-11.5305
▁ocurrido	-11.5305
▁contener	-11.5305
▁celoso	-11.5305
▁hesitate	-11.5305
▁Imagin	-11.5305
▁tejado	-11.5305
▁suéter	-11.5306
▁temple	-11.5306
▁templo	-11.5306
▁orgullosa	-11.5306
▁wheat	-11.5306
▁recién	-11.5307
▁directamente	-11.5308
▁pink	-11.5309
▁trapped	-11.5311
▁botas	-11.5314
▁Manten	-11.5341
▁Camin	-11.5344
Who	-11.5346
▁olvide	-11.5441
▁escapa	-11.5445
▁descend	-11.5464
UU	-11.547
▁decent	-11.5482
iéndose	-11.5492
▁DNA	-11.5522
▁arriving	-11.5522
▁benefit	-11.5522
▁blanket	-11.5522
▁chemical	-11.5522
▁communicate	-11.5522
▁competition	-11.5522
▁consequence	-11.5522
▁diamante	-11.5522
▁distinta	-11.5522
▁enamoró	-11.5522
▁evidencia	-11.5522
▁helicopter	-11.5522
▁philosophy	-11.5522
▁propiedad	-11.5522
▁príncipe	-11.5522
▁published	-11.5522
▁unhappy	-11.5522
▁whistle	-11.5522
▁anxious	-11.5522
▁conozca	-11.5522
▁escrita	-11.5522
▁ingenuo	-11.5522
▁jeans	-11.5522
▁translating	-11.5522
▁typical	-11.5522
▁twist	-11.5522
▁valuable	-11.5522
▁plaza	-11.5522
▁cuchara	-11.5522
▁cultiva	-11.5522
▁entrevista	-11.5522
▁jaula	-11.5522
▁Hebrew	-11.5522
▁committee	-11.5522
▁yourselves	-11.5522
▁proporciona	-11.5522
▁pintor	-11.5522
▁Millie	-11.5522
▁proceso	-11.5522
▁gobern	-11.5523
árselo	-11.5523
▁Buena	-11.5524
▁colega	-11.5525
▁retrasa	-11.5525
▁tenedor	-11.5526
▁income	-11.5526
▁pillow	-11.5526
▁float	-11.5527
▁version	-11.5528
▁orbit	-11.553
▁ajust	-11.5539
▁debí	-11.5544
▁juez	-11.5552
▁admiti	-11.5557
▁distri	-11.565
▁matemática	-11.5668
ncillamente	-11.5671
▁Language	-11.5744
▁Thursday	-11.5744
▁accompany	-11.5744
▁adelanta	-11.5744
▁confidence	-11.5744
▁confío	-11.5744
▁convertido	-11.5744
▁crítica	-11.5744
▁descubierto	-11.5744
▁diamond	-11.5744
▁egoísta	-11.5744
▁estudió	-11.5744
▁families	-11.5744
▁flashlight	-11.5744
▁húngaro	-11.5744
▁incapaz	-11.5744
▁infierno	-11.5744
▁linterna	-11.5744
▁positive	-11.5744
▁puzzle	-11.5744
▁religious	-11.5744
▁reputation	-11.5744
▁secundaria	-11.5744
▁órdenes	-11.5744
▁descuid	-11.5744
▁ensayo	-11.5744
▁juegue	-11.5744
▁jueves	-11.5744
▁nevando	-11.5744
▁surface	-11.5744
▁pepper	-11.5744
▁properly	-11.5744
▁salvó	-11.5744
americana	-11.5744
▁monster	-11.5744
▁zumo	-11.5744
▁abrupt	-11.5744
▁reserve	-11.5744
▁witch	-11.5745
▁kidding	-11.5745
▁aguantar	-11.5745
▁Compart	-11.5745
▁parcial	-11.5745
▁solicitud	-11.5745
▁beginner	-11.5745
▁encontraste	-11.5746
▁José	-11.5746
▁glance	-11.5746
▁apesta	-11.5747
▁aprendiste	-11.5747
▁giant	-11.5747
▁habitual	-11.5749
▁rush	-11.575
▁carbon	-11.5751
▁suggestion	-11.5754
▁includ	-11.5781
▁jugaba	-11.5817
▁drag	-11.5899
Entonces	-11.5945
nyone	-11.5946
+	-11.5972
▁Dutch	-11.5972
▁February	-11.5972
▁Hawaii	-11.5972
▁November	-11.5972
▁affair	-11.5972
▁amanecer	-11.5972
▁arrepiento	-11.5972
▁bienvenido	-11.5972
▁caluroso	-11.5972
▁charming	-11.5972
▁compromiso	-11.5972
▁círculo	-11.5972
▁desarrollo	-11.5972
▁disagree	-11.5972
▁drowned	-11.5972
▁eléctrico	-11.5972
▁espectáculo	-11.5972
▁estructura	-11.5972
▁explosión	-11.5972
▁exterior	-11.5972
▁fabrica	-11.5972
▁garbage	-11.5972
▁grandparents	-11.5972
▁ilusión	-11.5972
▁ingeniero	-11.5972
▁llego	-11.5972
▁lástima	-11.5972
▁narrow	-11.5972
▁ordeña	-11.5972
▁quarrel	-11.5972
▁resources	-11.5972
▁sensitive	-11.5972
▁uncomfortable	-11.5972
▁envelope	-11.5972
▁essential	-11.5972
▁nacimiento	-11.5972
▁unexpected	-11.5972
▁Everest	-11.5972
▁circle	-11.5972
▁sobrevivir	-11.5972
▁usuario	-11.5972
▁comité	-11.5972
▁Though	-11.5972
▁consigue	-11.5972
▁stink	-11.5972
▁silver	-11.5972
▁entrance	-11.5972
▁pasillo	-11.5972
▁budge	-11.5972
▁deposit	-11.5972
▁vestir	-11.5972
▁nerve	-11.5972
▁demostrar	-11.5972
▁uvas	-11.5972
▁aliento	-11.5972
▁cristal	-11.5972
▁silba	-11.5972
▁Drink	-11.5972
▁compensa	-11.5972
▁Tendrá	-11.5972
▁sunny	-11.5973
▁scale	-11.5973
▁creó	-11.5973
▁advers	-11.5973
▁begun	-11.5973
▁export	-11.5974
▁Work	-11.5974
ítate	-11.5974
▁Free	-11.5975
▁liberty	-11.5975
▁poetry	-11.5975
ándote	-11.598
Feliz	-11.5992
▁multipl	-11.6138
▁negoci	-11.6156
▁celebr	-11.6176
That	-11.6178
▁regresa	-11.6186
▁prince	-11.6194
▁trabaj	-11.6201
▁dialect	-11.6204
▁Central	-11.6204
▁Turquía	-11.6204
▁battery	-11.6204
▁circumstances	-11.6204
▁clásica	-11.6204
▁creyó	-11.6204
▁célula	-11.6204
▁frigorífico	-11.6204
▁hablé	-11.6204
▁helicóptero	-11.6204
▁homosexual	-11.6204
▁improbable	-11.6204
▁inferior	-11.6204
▁puppy	-11.6204
▁secuestr	-11.6204
▁teenager	-11.6204
▁virtue	-11.6204
▁juicio	-11.6204
▁adicto	-11.6204
▁focus	-11.6204
▁possess	-11.6204
▁surgery	-11.6204
▁duermo	-11.6204
▁niebla	-11.6204
▁vidrio	-11.6204
▁relaciones	-11.6204
▁opciones	-11.6204
▁memories	-11.6204
▁ladder	-11.6204
▁mojado	-11.6204
▁puerto	-11.6204
▁julio	-11.6204
▁ministro	-11.6204
▁boots	-11.6204
▁prior	-11.6204
▁lottery	-11.6205
▁fuga	-11.6205
▁sujeto	-11.6205
▁soltero	-11.6205
▁estuviste	-11.6205
▁Corea	-11.6205
▁gym	-11.6205
▁aparato	-11.6206
▁grapes	-11.6206
▁proverb	-11.6206
▁presum	-11.6206
▁calendar	-11.6206
▁cocinero	-11.6206
▁espina	-11.6206
▁oeste	-11.6208
▁resume	-11.6208
▁ease	-11.6211
áramos	-11.6213
▁applie	-11.6215
▁urge	-11.6239
▁sencilla	-11.6282
▁organism	-11.6293
▁atrae	-11.6298
Quier	-11.6327
▁alumno	-11.6383
▁prime	-11.6392
Nunca	-11.6416
cogió	-11.6427
graphy	-11.6438
mpezó	-11.6439
▁gentle	-11.6441
▁oscurec	-11.6442
$	-11.6442
▁Carlsen	-11.6442
▁Kabyle	-11.6442
▁adecuada	-11.6442
▁communication	-11.6442
▁convierte	-11.6442
▁definitivamente	-11.6442
▁financial	-11.6442
▁garganta	-11.6442
▁hormiga	-11.6442
▁llamé	-11.6442
▁mamífero	-11.6442
▁ochenta	-11.6442
▁oponente	-11.6442
▁response	-11.6442
▁scientific	-11.6442
▁suicidó	-11.6442
▁superficie	-11.6442
▁sótano	-11.6442
▁tradicional	-11.6442
▁upstairs	-11.6442
▁Disney	-11.6442
▁además	-11.6442
▁apasiona	-11.6442
▁bullet	-11.6442
▁global	-11.6442
▁magnet	-11.6442
▁exciting	-11.6442
▁pintó	-11.6442
▁retraso	-11.6442
▁Armenia	-11.6442
▁David	-11.6442
▁coraje	-11.6442
▁sonríe	-11.6442
▁desastre	-11.6442
▁cuestion	-11.6442
▁perdiendo	-11.6442
▁miserable	-11.6442
▁vivimos	-11.6442
▁unusual	-11.6442
▁liquid	-11.6442
▁ritmo	-11.6442
▁paloma	-11.6442
▁cadena	-11.6442
▁fresca	-11.6442
▁related	-11.6442
▁opina	-11.6443
▁Old	-11.6443
▁barata	-11.6443
▁Escribe	-11.6443
▁Julia	-11.6443
▁sauce	-11.6444
▁outfit	-11.6444
▁lotería	-11.6444
▁nací	-11.6444
▁tontería	-11.6445
▁Angel	-11.6445
▁ignorance	-11.6446
▁device	-11.6452
▁recibi	-11.6485
▁alguno	-11.6633
¡	-11.6647
looking	-11.666
▁básica	-11.6686
▁desperdici	-11.6686
▁Hablé	-11.6686
▁adventure	-11.6686
▁cálido	-11.6686
▁económica	-11.6686
▁iPad	-11.6686
▁mammal	-11.6686
▁musulmanes	-11.6686
▁médica	-11.6686
▁security	-11.6686
▁sunglasses	-11.6686
▁Disfrut	-11.6686
▁alcanzó	-11.6686
▁cajón	-11.6686
▁mochila	-11.6686
▁poverty	-11.6686
▁Great	-11.6686
▁ladrones	-11.6686
▁átomo	-11.6686
▁sufrir	-11.6686
▁colección	-11.6686
▁recibí	-11.6686
▁ligero	-11.6686
▁flour	-11.6686
▁minister	-11.6686
▁grosero	-11.6686
▁engaged	-11.6686
▁disaster	-11.6686
▁martillo	-11.6686
▁exagera	-11.6686
▁acumula	-11.6686
▁viniste	-11.6686
▁bunch	-11.6686
▁cruce	-11.6686
▁escapó	-11.6686
▁silk	-11.6686
▁column	-11.6687
▁bribe	-11.6687
▁huyó	-11.6687
▁confident	-11.6687
craft	-11.6687
▁afeita	-11.6687
▁seguía	-11.6687
▁Milk	-11.6687
▁corro	-11.6687
▁crush	-11.6687
▁regalar	-11.6688
▁envy	-11.6689
▁console	-11.669
▁gorda	-11.6692
▁Moder	-11.6693
▁fluent	-11.677
▁vota	-11.677
audi	-11.6791
▁renunci	-11.6818
▁client	-11.6822
▁dye	-11.6873
▁perdier	-11.6919
friend	-11.6932
▁2013	-11.6936
▁Además	-11.6936
▁Choose	-11.6936
▁Swedish	-11.6936
▁Tráeme	-11.6936
▁Turkey	-11.6936
▁amabilidad	-11.6936
▁bishop	-11.6936
▁collapse	-11.6936
▁escondió	-11.6936
▁frozen	-11.6936
▁género	-11.6936
▁jabón	-11.6936
▁mutuamente	-11.6936
▁oxígeno	-11.6936
▁reputación	-11.6936
▁scissors	-11.6936
▁scolded	-11.6936
▁whisper	-11.6936
▁yield	-11.6936
▁Mantén	-11.6936
▁alemanes	-11.6936
▁apetece	-11.6936
▁déjame	-11.6936
▁inocencia	-11.6936
▁statue	-11.6936
▁cigarro	-11.6936
▁expense	-11.6936
▁huelga	-11.6936
▁orphan	-11.6936
▁alemana	-11.6936
▁cambie	-11.6936
▁desperate	-11.6936
▁robber	-11.6936
▁sonreír	-11.6936
▁alquilar	-11.6936
▁corté	-11.6936
▁gathered	-11.6936
▁Habrá	-11.6936
▁secretaria	-11.6936
▁mordió	-11.6936
▁composed	-11.6936
▁therefore	-11.6936
▁Green	-11.6936
▁spoon	-11.6936
▁proof	-11.6937
▁resort	-11.6937
▁activo	-11.6938
▁Albert	-11.6939
▁califica	-11.6939
▁damn	-11.694
▁enviado	-11.6942
▁Fuma	-11.6951
ándolo	-11.6966
pidiendo	-11.6977
▁Corrí	-11.7009
shirt	-11.7169
▁ignora	-11.7191
▁obtain	-11.7193
▁Asegúrate	-11.7193
▁accommodate	-11.7193
▁alfabeto	-11.7193
▁bisexual	-11.7193
▁cucaracha	-11.7193
▁estupidez	-11.7193
▁febrero	-11.7193
▁frightened	-11.7193
▁furious	-11.7193
▁galaxia	-11.7193
▁garantiz	-11.7193
▁grammar	-11.7193
▁increasing	-11.7193
▁líquido	-11.7193
▁máximo	-11.7193
▁privada	-11.7193
▁revolution	-11.7193
▁semáforo	-11.7193
▁struck	-11.7193
▁structure	-11.7193
▁videojuego	-11.7193
▁describir	-11.7193
▁falleció	-11.7193
▁leftovers	-11.7193
▁preparó	-11.7193
▁knight	-11.7193
▁sugerencia	-11.7193
▁levanto	-11.7193
▁noventa	-11.7193
▁ambiente	-11.7193
▁limón	-11.7193
▁Laurie	-11.7193
▁vencido	-11.7193
▁increment	-11.7193
▁pirata	-11.7193
▁caída	-11.7193
▁click	-11.7193
▁sabrá	-11.7193
▁grandma	-11.7193
▁cierre	-11.7193
▁ocurra	-11.7193
▁Find	-11.7193
▁insane	-11.7193
▁Sentí	-11.7193
▁cinta	-11.7193
▁harina	-11.7194
▁descubrimiento	-11.7194
▁dozen	-11.7194
▁warning	-11.7194
▁Segund	-11.7194
▁essay	-11.7194
▁despega	-11.7195
▁repart	-11.7196
kilogram	-11.7197
uzco	-11.7201
Sabé	-11.7211
worm	-11.7273
ogí	-11.7387
▁comparti	-11.7391
Liber	-11.7419
▁disminu	-11.7456
▁negotia	-11.7456
▁Finnish	-11.7456
▁Vietnam	-11.7456
▁Wednesday	-11.7456
▁acrobat	-11.7456
▁acróbata	-11.7456
▁alérgico	-11.7456
▁atractiva	-11.7456
▁blonde	-11.7456
▁candidato	-11.7456
▁cebolla	-11.7456
▁conclusión	-11.7456
▁cottage	-11.7456
▁desafío	-11.7456
▁económico	-11.7456
▁escuché	-11.7456
▁estupendo	-11.7456
▁eternidad	-11.7456
▁evidente	-11.7456
▁forbidden	-11.7456
▁generous	-11.7456
▁guarantee	-11.7456
▁indispensable	-11.7456
▁murciélago	-11.7456
▁noviembre	-11.7456
▁obtuvo	-11.7456
▁piña	-11.7456
▁swallow	-11.7456
▁previous	-11.7456
▁ciervo	-11.7456
▁poquito	-11.7456
▁tijeras	-11.7456
▁Trump	-11.7456
▁Michael	-11.7456
▁shining	-11.7456
▁Querría	-11.7456
▁arroja	-11.7456
▁drama	-11.7456
▁soporto	-11.7456
employed	-11.7456
▁Claus	-11.7456
▁postpone	-11.7456
▁cueva	-11.7456
▁granjero	-11.7456
▁regrese	-11.7456
▁astuto	-11.7456
▁Suecia	-11.7456
▁reducir	-11.7456
▁Decidi	-11.7456
▁multa	-11.7456
▁aguanto	-11.7457
▁hebreo	-11.7457
▁Limpi	-11.7457
▁vigor	-11.7457
▁dinosaurio	-11.7457
▁album	-11.7457
▁radical	-11.7457
▁rellen	-11.7457
▁tinto	-11.7457
▁crecí	-11.746
éric	-11.7463
ándole	-11.7465
Recibi	-11.7519
▁criticize	-11.7602
hood	-11.7625
ggle	-11.7663
▁funcione	-11.7675
▁explic	-11.7693
▁advise	-11.7699
▁inmigra	-11.7726
▁thorough	-11.7726
▁Cuéntame	-11.7726
▁Street	-11.7726
▁acondicionado	-11.7726
▁brasileño	-11.7726
▁búsqueda	-11.7726
▁cachorro	-11.7726
▁candidate	-11.7726
▁combustible	-11.7726
▁competencia	-11.7726
▁construido	-11.7726
▁deprimido	-11.7726
▁franceses	-11.7726
▁gimnasio	-11.7726
▁hamburguesa	-11.7726
▁harvest	-11.7726
▁indigna	-11.7726
▁masturba	-11.7726
▁miércoles	-11.7726
▁telefónica	-11.7726
▁textbook	-11.7726
▁íbamos	-11.7726
▁promedio	-11.7726
▁property	-11.7726
▁siguiendo	-11.7726
▁truco	-11.7726
▁escuche	-11.7726
▁threatened	-11.7726
▁vacuna	-11.7726
▁veinti	-11.7726
▁Luego	-11.7726
▁arrastr	-11.7726
▁disparo	-11.7726
▁spilled	-11.7726
▁poured	-11.7726
▁recipe	-11.7726
▁unfair	-11.7726
▁plena	-11.7726
▁bookstore	-11.7727
▁escolar	-11.7727
▁mentido	-11.7727
▁James	-11.7727
▁bebido	-11.7727
▁Wood	-11.7727
▁sunset	-11.7727
▁slice	-11.773
▁extremo	-11.7732
Fuiste	-11.7736
XX	-11.7774
▁Prepar	-11.7804
▁accus	-11.798
▁necessar	-11.7982
▁employee	-11.7986
▁obten	-11.7994
▁recent	-11.7995
▁Trabaj	-11.7998
▁acquaint	-11.8004
▁dictator	-11.8004
▁explode	-11.8004
▁baggage	-11.8004
▁cadáver	-11.8004
▁cockroach	-11.8004
▁colleague	-11.8004
▁conscience	-11.8004
▁criatura	-11.8004
▁diligent	-11.8004
▁diploma	-11.8004
▁insurance	-11.8004
▁tránsito	-11.8004
▁técnica	-11.8004
▁Regres	-11.8004
▁enfadó	-11.8004
▁Instead	-11.8004
▁constantemente	-11.8004
▁maintain	-11.8004
▁stock	-11.8004
▁target	-11.8004
▁harsh	-11.8004
▁raza	-11.8004
▁strip	-11.8004
▁ligera	-11.8005
▁sabia	-11.8006
▁Magn	-11.8009
▁contradict	-11.8009
▁blog	-11.8014
▁Llor	-11.8014
▁introduc	-11.8116
▁sopla	-11.8117
▁reconoce	-11.822
infl	-11.8239
▁Descubr	-11.829
▁September	-11.829
▁Sweden	-11.829
▁Vladimir	-11.829
▁arrival	-11.829
▁composition	-11.829
▁césped	-11.829
▁código	-11.829
▁defensa	-11.829
▁desagradable	-11.829
▁engañó	-11.829
▁gramatical	-11.829
▁hormiguero	-11.829
▁ilumina	-11.829
▁intérprete	-11.829
▁izquierdo	-11.829
▁luggage	-11.829
▁oxygen	-11.829
▁pimienta	-11.829
▁refrigerador	-11.829
▁resuelto	-11.829
▁sábana	-11.829
▁temptation	-11.829
▁thunder	-11.829
▁triunfar	-11.829
▁breast	-11.829
▁conduciendo	-11.829
▁grammatical	-11.829
▁proviene	-11.829
▁complejo	-11.829
▁farmacia	-11.829
▁expuls	-11.829
▁YouTube	-11.829
▁nacido	-11.829
▁creative	-11.829
▁arranca	-11.829
▁overcome	-11.829
▁tortura	-11.829
▁actúa	-11.829
▁split	-11.829
▁Existen	-11.829
▁tentación	-11.829
▁despej	-11.829
▁dude	-11.829
▁entrenador	-11.829
▁sonriendo	-11.829
▁random	-11.829
▁seriamente	-11.829
▁visual	-11.829
▁enojar	-11.8291
▁breed	-11.8291
▁Conocí	-11.8291
▁delgado	-11.8292
▁estatua	-11.8292
▁dimension	-11.8473
▁descansa	-11.8526
Ojalá	-11.8557
volvió	-11.8557
Ahora	-11.8557
bló	-11.8577
▁obsess	-11.8584
▁bloom	-11.8584
▁stretch	-11.8584
parentemente	-11.8584
▁2010	-11.8584
▁December	-11.8584
▁Gobierno	-11.8584
▁Hawái	-11.8584
▁Permít	-11.8584
▁Yokohama	-11.8584
▁ambulance	-11.8584
▁ambulancia	-11.8584
▁arrepentir	-11.8584
▁baffled	-11.8584
▁beneficios	-11.8584
▁burglar	-11.8584
▁cafetería	-11.8584
▁ceremonia	-11.8584
▁concurso	-11.8584
▁cómplice	-11.8584
▁decírselo	-11.8584
▁escritura	-11.8584
▁furioso	-11.8584
▁handkerchief	-11.8584
▁imágenes	-11.8584
▁individuo	-11.8584
▁innocence	-11.8584
▁jirafa	-11.8584
▁negative	-11.8584
▁occidental	-11.8584
▁purchase	-11.8584
▁químico	-11.8584
▁sacerdote	-11.8584
▁suponía	-11.8584
▁underestimate	-11.8584
▁universitario	-11.8584
▁vehicle	-11.8584
▁órgano	-11.8584
▁apetito	-11.8584
▁butterfly	-11.8584
▁forecast	-11.8584
▁nublado	-11.8584
▁Charles	-11.8584
▁regreso	-11.8584
▁aprecia	-11.8584
▁felicit	-11.8584
▁revés	-11.8584
▁plazo	-11.8584
▁belief	-11.8584
▁pidieron	-11.8584
▁certifi	-11.8584
▁plain	-11.8584
▁Jiro	-11.8584
▁Nature	-11.8584
▁refiere	-11.8584
▁gentil	-11.8584
▁ingenio	-11.8584
▁ubica	-11.8584
▁renov	-11.8584
▁encender	-11.8584
▁Admit	-11.8584
▁libras	-11.8584
▁descarga	-11.8584
▁Walk	-11.8584
▁acelera	-11.8584
▁profit	-11.8584
▁Compare	-11.8585
▁esencial	-11.8603
iguieron	-11.8626
▁distant	-11.8634
▁asumi	-11.8697
necesariamente	-11.8818
cierto	-11.8834
▁Britain	-11.8887
▁Muéstrame	-11.8887
▁Nowadays	-11.8887
▁Wikipedia	-11.8887
▁alternative	-11.8887
▁argelino	-11.8887
▁embajada	-11.8887
▁físico	-11.8887
▁handwriting	-11.8887
▁impatient	-11.8887
▁incredible	-11.8887
▁permaneci	-11.8887
▁replied	-11.8887
▁republic	-11.8887
▁sleeve	-11.8887
▁tradujo	-11.8887
▁trunk	-11.8887
▁típico	-11.8887
▁álbum	-11.8887
Cállate	-11.8887
▁clarinet	-11.8887
▁revenge	-11.8887
▁slipped	-11.8887
▁nowadays	-11.8887
▁rotten	-11.8887
▁Abandon	-11.8887
▁confuso	-11.8887
▁protección	-11.8887
▁tabaco	-11.8887
▁adonde	-11.8887
▁muriendo	-11.8887
▁lastimó	-11.8887
▁mojada	-11.8887
▁stake	-11.8887
▁engaño	-11.8887
▁Fuck	-11.8887
▁junk	-11.8887
▁urban	-11.8887
▁rising	-11.8887
▁afterwards	-11.8887
▁crudo	-11.8887
▁recibe	-11.8887
▁intereses	-11.8887
ármelo	-11.8887
▁stove	-11.8887
▁stain	-11.8887
▁Falta	-11.8888
▁Pása	-11.889
▁Believ	-11.8892
▁Escribi	-11.8897
▁literar	-11.8897
▁florec	-11.8899
Ayuda	-11.8905
▁Hav	-11.9084
signed	-11.9113
▁Feli	-11.9183
▁dinosaur	-11.9198
▁accelerat	-11.9199
▁aproxim	-11.9199
▁excepcional	-11.9199
▁futbol	-11.9199
▁Afortunadamente	-11.9199
▁Catholic	-11.9199
▁Chopin	-11.9199
▁Zamenhof	-11.9199
▁avergüenz	-11.9199
▁ceremony	-11.9199
▁crecimiento	-11.9199
▁dieciséis	-11.9199
▁emborrach	-11.9199
▁equilibr	-11.9199
▁explota	-11.9199
▁hockey	-11.9199
▁irregular	-11.9199
▁nephew	-11.9199
▁peanut	-11.9199
▁proteína	-11.9199
▁septiembre	-11.9199
▁sobrino	-11.9199
▁sufrimiento	-11.9199
▁conocimos	-11.9199
▁enojada	-11.9199
▁rifle	-11.9199
▁surprising	-11.9199
▁unfortunate	-11.9199
▁worries	-11.9199
▁Food	-11.9199
▁Scott	-11.9199
▁alquiler	-11.9199
▁equivalent	-11.9199
▁reuniones	-11.9199
▁inherit	-11.9199
▁relation	-11.9199
▁mobile	-11.9199
▁preferiría	-11.9199
▁subestim	-11.9199
▁numeros	-11.9199
▁pudieron	-11.9199
▁soledad	-11.9199
▁utter	-11.9199
▁cuidadosamente	-11.9199
▁Four	-11.92
▁owl	-11.92
▁dump	-11.92
▁torture	-11.92
▁solicit	-11.92
▁diaria	-11.92
claró	-11.92
▁estricta	-11.92
▁cherr	-11.9212
Dormi	-11.93
eligió	-11.9342
Bien	-11.945
Better	-11.949
▁potato	-11.9503
▁crawl	-11.9522
▁Actually	-11.9522
▁Antonio	-11.9522
▁Ayúdame	-11.9522
▁Darwin	-11.9522
▁accordion	-11.9522
▁acordeón	-11.9522
▁advirtió	-11.9522
▁aficionado	-11.9522
▁aggressive	-11.9522
▁atropella	-11.9522
▁caminó	-11.9522
▁conociera	-11.9522
▁continúa	-11.9522
▁dizzy	-11.9522
▁enfrente	-11.9522
▁esclavitud	-11.9522
▁escándalo	-11.9522
▁evolución	-11.9522
▁evolution	-11.9522
▁hurried	-11.9522
▁industry	-11.9522
▁maravilla	-11.9522
▁mezquita	-11.9522
▁neumático	-11.9522
▁portátil	-11.9522
▁recompensa	-11.9522
▁rehusó	-11.9522
▁relacionado	-11.9522
▁stubborn	-11.9522
▁sugirió	-11.9522
▁Mexican	-11.9522
▁Nuevo	-11.9522
▁cepillo	-11.9522
▁destiny	-11.9522
▁fracasado	-11.9522
▁illusion	-11.9522
▁rapidly	-11.9522
▁smooth	-11.9522
▁surrender	-11.9522
▁zanja	-11.9522
▁Amazon	-11.9522
▁Study	-11.9522
▁fifth	-11.9522
▁confesó	-11.9522
▁anuncio	-11.9522
▁orquesta	-11.9522
▁magia	-11.9522
▁carbón	-11.9522
▁comenzado	-11.9522
▁eighteen	-11.9522
▁atrapó	-11.9522
▁leyenda	-11.9522
▁prestó	-11.9522
▁cogido	-11.9522
▁drum	-11.9522
▁precisa	-11.9522
▁conquista	-11.9522
▁cuanta	-11.9522
▁associate	-11.9523
▁burro	-11.9523
Existe	-11.9525
primir	-11.9534
▁plati	-11.9535
ijiste	-11.956
▁infinite	-11.9602
▁construye	-11.9643
ológ	-11.9763
▁Einstein	-11.9855
▁FBI	-11.9855
▁Llovió	-11.9855
▁Republic	-11.9855
▁accumulated	-11.9855
▁activities	-11.9855
▁adjust	-11.9855
▁appropriate	-11.9855
▁atractivo	-11.9855
▁auténtico	-11.9855
▁bacteria	-11.9855
▁cirugía	-11.9855
▁conocieron	-11.9855
▁creciendo	-11.9855
▁hamburger	-11.9855
▁heavily	-11.9855
▁immigrant	-11.9855
▁lápices	-11.9855
▁malentendido	-11.9855
▁matemático	-11.9855
▁ordinary	-11.9855
▁reemplaz	-11.9855
▁romántico	-11.9855
▁specific	-11.9855
▁territorio	-11.9855
▁turkey	-11.9855
▁typhoon	-11.9855
▁vegetales	-11.9855
▁volviera	-11.9855
▁ADN	-11.9855
▁adquiri	-11.9855
▁desorden	-11.9855
▁dolphin	-11.9855
▁ingleses	-11.9855
▁linguist	-11.9855
▁neutral	-11.9855
▁petición	-11.9855
▁pingüino	-11.9855
▁sneeze	-11.9855
Yeah	-11.9855
▁Finally	-11.9855
▁Polonia	-11.9855
▁simpático	-11.9855
▁worship	-11.9855
▁ansioso	-11.9855
▁conseguí	-11.9855
▁pizarra	-11.9855
▁pigeon	-11.9855
▁veloz	-11.9855
▁sibling	-11.9855
▁Saturn	-11.9855
▁assembl	-11.9855
▁perdimos	-11.9855
▁estricto	-11.9855
▁lesbian	-11.9855
▁Honest	-11.9856
ártelo	-11.9856
▁clue	-11.9856
▁sacudi	-11.9859
▁punch	-11.9866
Adiós	-11.9873
▁Driv	-11.992
▁necesaria	-11.9931
▁comprende	-11.9935
hrow	-12.0063
Q	-12.0108
▁acostumbr	-12.015
▁librar	-12.0182
Entiendes	-12.02
▁1990	-12.02
▁Abrí	-12.02
▁Actualmente	-12.02
▁Soviet	-12.02
▁Translate	-12.02
▁apparently	-12.02
▁assistant	-12.02
▁atentamente	-12.02
▁búho	-12.02
▁condujo	-12.02
▁destruir	-12.02
▁diciembre	-12.02
▁dieciocho	-12.02
▁entendió	-12.02
▁húmedo	-12.02
▁italiana	-12.02
▁kanji	-12.02
▁laundry	-12.02
▁peculiar	-12.02
▁revolución	-12.02
▁sorrow	-12.02
▁terribly	-12.02
▁vecindario	-12.02
américa	-12.02
▁$1	-12.02
▁audiencia	-12.02
▁refleja	-12.02
▁transparent	-12.02
▁downtown	-12.02
▁mankind	-12.02
▁maíz	-12.02
▁sabés	-12.02
▁Follow	-12.02
▁Perdona	-12.02
▁ancestor	-12.02
▁prendió	-12.02
▁globo	-12.02
▁estantería	-12.02
▁intimida	-12.02
▁recibo	-12.02
▁length	-12.02
▁Apple	-12.02
▁asteroid	-12.02
▁turtle	-12.02
▁trivial	-12.02
▁rival	-12.02
▁addition	-12.02
▁Social	-12.02
▁rusa	-12.0201
▁amplia	-12.0201
▁confesar	-12.0201
▁accede	-12.0201
▁jubila	-12.0202
▁Ignor	-12.0202
▁fulfill	-12.0557
▁neglect	-12.0557
-19	-12.0557
Vosotros	-12.0557
misunderstanding	-12.0557
vulnerable	-12.0557
▁Fortunately	-12.0557
▁Olympic	-12.0557
▁Scotland	-12.0557
▁Siéntate	-12.0557
▁Suzuki	-12.0557
▁appetite	-12.0557
▁apropiado	-12.0557
▁asignatura	-12.0557
▁chemistry	-12.0557
▁conseguido	-12.0557
▁crítico	-12.0557
▁downstairs	-12.0557
▁enormous	-12.0557
▁minimum	-12.0557
▁orchestra	-12.0557
▁paisaje	-12.0557
▁perezoso	-12.0557
▁pineapple	-12.0557
▁pollution	-12.0557
▁pronóstico	-12.0557
▁pálido	-12.0557
▁scandal	-12.0557
▁solitario	-12.0557
▁symptom	-12.0557
▁síntoma	-12.0557
▁thieves	-12.0557
▁tímida	-12.0557
▁Últimamente	-12.0557
▁Edison	-12.0557
▁abhor	-12.0557
▁comunista	-12.0557
▁coreano	-12.0557
▁differ	-12.0557
▁etiqueta	-12.0557
▁domestic	-12.0557
▁melodía	-12.0557
▁rastro	-12.0557
▁sustancia	-12.0557
▁traducida	-12.0557
▁withdraw	-12.0557
▁contenido	-12.0557
▁refuge	-12.0557
Z	-12.1686
X	-12.2026
ç	-12.3994
–	-12.5638
_	-12.5664
&	-12.6956
°	-12.767
Ó	-12.767
€	-12.844
>	-12.9273
‘	-13.0182
@	-13.1182
ł	-13.2293
â	-13.3543
ö	-13.3543
ā	-13.4972
Í	-13.4972
è	-13.4972
ō	-13.4972
*	-13.4972
č	-13.6638
ń	-13.6638
π	-13.6638
ä	-13.8638
а	-13.8638
ê	-14.1138
š	-14.1138
ַ	-14.1138
ל	-14.1138
à	-14.1138
♘	-14.1138
ô	-14.1138
ə	-14.1138
(	-14.4446
å	-14.4472
æ	-14.9472
ī	-14.9472
ˈ	-14.9472
ë	-14.9472
=	-14.9472
]	-14.9472
­	-14.9472
Ç	-14.9472
ć	-14.9472
đ	-14.9472
ě	-14.9472
œ	-14.9472
ř	-14.9472
ŝ	-14.9472
ş	-14.9472
ū	-14.9472
ź	-14.9472
ž	-14.9472
ǎ	-14.9472
т	-14.9472
ồ	-14.9472
ứ	-14.9472
₪	-14.9472
₫	-14.9472
→	-14.9472
☭	-14.9472
♗	-14.9472
⨯	-14.9472
あ	-14.9472
À	-14.9472
א	-14.9472
ע	-14.9472
허	-15.945
신	-15.9451
―	-15.9452
́	-15.9453
Ţ	-15.9454
Ĉ	-15.9455
[	-15.9456
ø	-15.9457
̈	-15.9458
#	-15.9459
ę	-15.946
─	-15.9461
ß	-15.9462
ï	-15.9463
<	-15.9464
Ú	-15.9465
ã	-15.9466
“	-15.9467
Á	-15.9468
«	-15.9469
É	-15.947
ñ	-15.9471
、	-15.9471
て	-15.9471
マ	-15.9471
リ	-15.9471
何	-15.9471
た	-15.9471
っ	-15.9471
ア	-15.9471
言	-15.9471
ì	-15.9472
ð	-15.9472
Ч	-15.9472
з	-15.9472
и	-15.9472
л	-15.9472
о	-15.9472
р	-15.9472
ы	-15.9472
э	-15.9472
Ḥ	-15.9472
‐	-15.9472
の	-15.9472
Ñ	-15.9472
î	-15.9472
q	-15.9472
Ü	-15.9472
М	-15.9472
к	-15.9472
с	-15.9472
